#include "magic_wand_model_data.h"

// We need to keep the data array aligned on some architectures.

#ifdef __has_attribute

#define HAVE_ATTRIBUTE(x) __has_attribute(x)

#else

#define HAVE_ATTRIBUTE(x) 0

#endif

#if HAVE_ATTRIBUTE(aligned) || (defined(__GNUC__) && !defined(__clang__))

#define DATA_ALIGN_ATTRIBUTE __attribute__((aligned(4)))

#else

#define DATA_ALIGN_ATTRIBUTE

#endif

const unsigned char g_magic_wand_model_data[] DATA_ALIGN_ATTRIBUTE = {

    0x1c, 0x00, 0x00, 0x00, 0x54, 0x46, 0x4c, 0x33, 0x14, 0x00, 0x20, 0x00,
    0x04, 0x00, 0x08, 0x00, 0x0c, 0x00, 0x10, 0x00, 0x14, 0x00, 0x00, 0x00,
    0x18, 0x00, 0x1c, 0x00, 0x14, 0x00, 0x00, 0x00, 0x03, 0x00, 0x00, 0x00,
    0x18, 0x00, 0x00, 0x00, 0x2c, 0x00, 0x00, 0x00, 0xd8, 0x00, 0x00, 0x00,
    0x2c, 0x00, 0x00, 0x00, 0x80, 0x00, 0x00, 0x00, 0x78, 0x00, 0x00, 0x00,
    0x05, 0x00, 0x00, 0x00, 0x28, 0x07, 0x00, 0x00, 0x44, 0x06, 0x00, 0x00,
    0xbc, 0x03, 0x00, 0x00, 0xf8, 0x02, 0x00, 0x00, 0xac, 0x01, 0x00, 0x00,
    0x01, 0x00, 0x00, 0x00, 0xd0, 0x00, 0x00, 0x00, 0x14, 0x00, 0x00, 0x00,
    0x98, 0x32, 0x00, 0x00, 0x94, 0x32, 0x00, 0x00, 0x8c, 0x31, 0x00, 0x00,
    0xd8, 0x30, 0x00, 0x00, 0x30, 0x30, 0x00, 0x00, 0xbc, 0x2f, 0x00, 0x00,
    0x50, 0x2f, 0x00, 0x00, 0x00, 0x13, 0x00, 0x00, 0xec, 0x11, 0x00, 0x00,
    0x10, 0x10, 0x00, 0x00, 0xb4, 0x07, 0x00, 0x00, 0x6c, 0x32, 0x00, 0x00,
    0x68, 0x32, 0x00, 0x00, 0x64, 0x32, 0x00, 0x00, 0x60, 0x32, 0x00, 0x00,
    0x5c, 0x32, 0x00, 0x00, 0x58, 0x32, 0x00, 0x00, 0x54, 0x32, 0x00, 0x00,
    0x50, 0x32, 0x00, 0x00, 0x3c, 0x00, 0x00, 0x00, 0x00, 0x00, 0x00, 0x00,
    0x01, 0x00, 0x00, 0x00, 0x0c, 0x00, 0x00, 0x00, 0x08, 0x00, 0x0c, 0x00,
    0x04, 0x00, 0x08, 0x00, 0x08, 0x00, 0x00, 0x00, 0x08, 0x00, 0x00, 0x00,
    0x13, 0x00, 0x00, 0x00, 0x13, 0x00, 0x00, 0x00, 0x6d, 0x69, 0x6e, 0x5f,
    0x72, 0x75, 0x6e, 0x74, 0x69, 0x6d, 0x65, 0x5f, 0x76, 0x65, 0x72, 0x73,
    0x69, 0x6f, 0x6e, 0x00, 0xfa, 0xce, 0xff, 0xff, 0x04, 0x00, 0x00, 0x00,
    0x10, 0x00, 0x00, 0x00, 0x31, 0x2e, 0x35, 0x2e, 0x30, 0x00, 0x00, 0x00,
    0x00, 0x00, 0x00, 0x00, 0x00, 0x00, 0x00, 0x00, 0x0f, 0x00, 0x00, 0x00,
    0x4d, 0x4c, 0x49, 0x52, 0x20, 0x43, 0x6f, 0x6e, 0x76, 0x65, 0x72, 0x74,
    0x65, 0x64, 0x2e, 0x00, 0x00, 0x00, 0x0e, 0x00, 0x18, 0x00, 0x04, 0x00,
    0x08, 0x00, 0x0c, 0x00, 0x10, 0x00, 0x14, 0x00, 0x0e, 0x00, 0x00, 0x00,
    0x14, 0x00, 0x00, 0x00, 0x5c, 0x00, 0x00, 0x00, 0x60, 0x00, 0x00, 0x00,
    0x64, 0x00, 0x00, 0x00, 0x84, 0x00, 0x00, 0x00, 0x12, 0x00, 0x00, 0x00,
    0x58, 0x31, 0x00, 0x00, 0xe8, 0x30, 0x00, 0x00, 0x44, 0x30, 0x00, 0x00,
    0x9c, 0x2f, 0x00, 0x00, 0xf4, 0x2e, 0x00, 0x00, 0x94, 0x2e, 0x00, 0x00,
    0x2c, 0x2e, 0x00, 0x00, 0xd8, 0x11, 0x00, 0x00, 0xbc, 0x10, 0x00, 0x00,
    0xe0, 0x0e, 0x00, 0x00, 0x0c, 0x06, 0x00, 0x00, 0x28, 0x05, 0x00, 0x00,
    0xe8, 0x03, 0x00, 0x00, 0x3c, 0x03, 0x00, 0x00, 0x98, 0x02, 0x00, 0x00,
    0xd4, 0x01, 0x00, 0x00, 0x10, 0x01, 0x00, 0x00, 0x84, 0x00, 0x00, 0x00,
    0x01, 0x00, 0x00, 0x00, 0x00, 0x00, 0x00, 0x00, 0x01, 0x00, 0x00, 0x00,
    0x11, 0x00, 0x00, 0x00, 0x08, 0x00, 0x00, 0x00, 0x74, 0x05, 0x00, 0x00,
    0x94, 0x04, 0x00, 0x00, 0x78, 0x03, 0x00, 0x00, 0xbc, 0x02, 0x00, 0x00,
    0x30, 0x02, 0x00, 0x00, 0x50, 0x01, 0x00, 0x00, 0xa8, 0x00, 0x00, 0x00,
    0x10, 0x00, 0x00, 0x00, 0x04, 0x00, 0x00, 0x00, 0x6d, 0x61, 0x69, 0x6e,
    0x00, 0x00, 0x00, 0x00, 0x7a, 0xff, 0xff, 0xff, 0x00, 0x00, 0x00, 0x09,
    0x04, 0x00, 0x00, 0x00, 0x1c, 0x00, 0x00, 0x00, 0x10, 0x00, 0x00, 0x00,
    0x04, 0x00, 0x00, 0x00, 0xf6, 0xcf, 0xff, 0xff, 0x00, 0x00, 0x80, 0x3f,
    0x01, 0x00, 0x00, 0x00, 0x11, 0x00, 0x00, 0x00, 0x01, 0x00, 0x00, 0x00,
    0x10, 0x00, 0x00, 0x00, 0xa0, 0xfa, 0xff, 0xff, 0x19, 0x00, 0x00, 0x00,
    0x00, 0x00, 0x00, 0x19, 0x01, 0x00, 0x00, 0x00, 0x84, 0xcf, 0xff, 0xff,
    0x14, 0x00, 0x00, 0x00, 0x12, 0x00, 0x00, 0x00, 0x18, 0x00, 0x00, 0x00,
    0x30, 0x00, 0x00, 0x00, 0x20, 0x00, 0x00, 0x00, 0x02, 0x00, 0x00, 0x00,
    0x01, 0x00, 0x00, 0x00, 0x03, 0x00, 0x00, 0x00, 0x08, 0x00, 0x00, 0x00,
    0x49, 0x64, 0x65, 0x6e, 0x74, 0x69, 0x74, 0x79, 0x00, 0x00, 0x00, 0x00,
    0x02, 0x00, 0x00, 0x00, 0xff, 0xff, 0xff, 0xff, 0x03, 0x00, 0x00, 0x00,
    0x68, 0xd0, 0xff, 0xff, 0x00, 0x00, 0x0e, 0x00, 0x18, 0x00, 0x08, 0x00,
    0x0c, 0x00, 0x10, 0x00, 0x07, 0x00, 0x14, 0x00, 0x0e, 0x00, 0x00, 0x00,
    0x00, 0x00, 0x00, 0x08, 0x03, 0x00, 0x00, 0x00, 0x18, 0x00, 0x00, 0x00,
    0x0c, 0x00, 0x00, 0x00, 0x04, 0x00, 0x00, 0x00, 0x84, 0xcf, 0xff, 0xff,
    0x01, 0x00, 0x00, 0x00, 0x10, 0x00, 0x00, 0x00, 0x03, 0x00, 0x00, 0x00,
    0x0f, 0x00, 0x00, 0x00, 0x07, 0x00, 0x00, 0x00, 0x04, 0x00, 0x00, 0x00,
    0x0c, 0xd0, 0xff, 0xff, 0x14, 0x00, 0x00, 0x00, 0x11, 0x00, 0x00, 0x00,
    0x18, 0x00, 0x00, 0x00, 0x5c, 0x00, 0x00, 0x00, 0x4c, 0x00, 0x00, 0x00,
    0x02, 0x00, 0x00, 0x00, 0x01, 0x00, 0x00, 0x00, 0x03, 0x00, 0x00, 0x00,
    0x34, 0x00, 0x00, 0x00, 0x73, 0x65, 0x71, 0x75, 0x65, 0x6e, 0x74, 0x69,
    0x61, 0x6c, 0x2f, 0x64, 0x65, 0x6e, 0x73, 0x65, 0x5f, 0x31, 0x2f, 0x4d,
    0x61, 0x74, 0x4d, 0x75, 0x6c, 0x3b, 0x73, 0x65, 0x71, 0x75, 0x65, 0x6e,
    0x74, 0x69, 0x61, 0x6c, 0x2f, 0x64, 0x65, 0x6e, 0x73, 0x65, 0x5f, 0x31,
    0x2f, 0x42, 0x69, 0x61, 0x73, 0x41, 0x64, 0x64, 0x00, 0x00, 0x00, 0x00,
    0x02, 0x00, 0x00, 0x00, 0xff, 0xff, 0xff, 0xff, 0x03, 0x00, 0x00, 0x00,
    0x0c, 0xd0, 0xff, 0xff, 0xda, 0xfc, 0xff, 0xff, 0x00, 0x00, 0x00, 0x08,
    0x03, 0x00, 0x00, 0x00, 0x24, 0x00, 0x00, 0x00, 0x18, 0x00, 0x00, 0x00,
    0x0c, 0x00, 0x00, 0x00, 0x00, 0x00, 0x06, 0x00, 0x08, 0x00, 0x07, 0x00,
    0x06, 0x00, 0x00, 0x00, 0x00, 0x00, 0x00, 0x01, 0x01, 0x00, 0x00, 0x00,
    0x0f, 0x00, 0x00, 0x00, 0x03, 0x00, 0x00, 0x00, 0x0e, 0x00, 0x00, 0x00,
    0x06, 0x00, 0x00, 0x00, 0x03, 0x00, 0x00, 0x00, 0xe8, 0xfb, 0xff, 0xff,
    0x09, 0x00, 0x00, 0x00, 0x00, 0x00, 0x00, 0x09, 0x01, 0x00, 0x00, 0x00,
    0xcc, 0xd0, 0xff, 0xff, 0x14, 0x00, 0x00, 0x00, 0x10, 0x00, 0x00, 0x00,
    0x18, 0x00, 0x00, 0x00, 0x6c, 0x00, 0x00, 0x00, 0x5c, 0x00, 0x00, 0x00,
    0x02, 0x00, 0x00, 0x00, 0x01, 0x00, 0x00, 0x00, 0x10, 0x00, 0x00, 0x00,
    0x46, 0x00, 0x00, 0x00, 0x73, 0x65, 0x71, 0x75, 0x65, 0x6e, 0x74, 0x69,
    0x61, 0x6c, 0x2f, 0x64, 0x65, 0x6e, 0x73, 0x65, 0x2f, 0x4d, 0x61, 0x74,
    0x4d, 0x75, 0x6c, 0x3b, 0x73, 0x65, 0x71, 0x75, 0x65, 0x6e, 0x74, 0x69,
    0x61, 0x6c, 0x2f, 0x64, 0x65, 0x6e, 0x73, 0x65, 0x2f, 0x52, 0x65, 0x6c,
    0x75, 0x3b, 0x73, 0x65, 0x71, 0x75, 0x65, 0x6e, 0x74, 0x69, 0x61, 0x6c,
    0x2f, 0x64, 0x65, 0x6e, 0x73, 0x65, 0x2f, 0x42, 0x69, 0x61, 0x73, 0x41,
    0x64, 0x64, 0x00, 0x00, 0x02, 0x00, 0x00, 0x00, 0xff, 0xff, 0xff, 0xff,
    0x10, 0x00, 0x00, 0x00, 0xec, 0xd1, 0xff, 0xff, 0x00, 0x00, 0x0a, 0x00,
    0x10, 0x00, 0x04, 0x00, 0x08, 0x00, 0x0c, 0x00, 0x0a, 0x00, 0x00, 0x00,
    0x02, 0x00, 0x00, 0x00, 0x10, 0x00, 0x00, 0x00, 0x04, 0x00, 0x00, 0x00,
    0x01, 0x00, 0x00, 0x00, 0x0e, 0x00, 0x00, 0x00, 0x02, 0x00, 0x00, 0x00,
    0x0d, 0x00, 0x00, 0x00, 0x05, 0x00, 0x00, 0x00, 0xa8, 0xfc, 0xff, 0xff,
    0x16, 0x00, 0x00, 0x00, 0x00, 0x00, 0x00, 0x16, 0x01, 0x00, 0x00, 0x00,
    0x8c, 0xd1, 0xff, 0xff, 0x14, 0x00, 0x00, 0x00, 0x0f, 0x00, 0x00, 0x00,
    0x18, 0x00, 0x00, 0x00, 0x40, 0x00, 0x00, 0x00, 0x30, 0x00, 0x00, 0x00,
    0x02, 0x00, 0x00, 0x00, 0x01, 0x00, 0x00, 0x00, 0x70, 0x00, 0x00, 0x00,
    0x1a, 0x00, 0x00, 0x00, 0x73, 0x65, 0x71, 0x75, 0x65, 0x6e, 0x74, 0x69,
    0x61, 0x6c, 0x2f, 0x66, 0x6c, 0x61, 0x74, 0x74, 0x65, 0x6e, 0x2f, 0x52,
    0x65, 0x73, 0x68, 0x61, 0x70, 0x65, 0x00, 0x00, 0x02, 0x00, 0x00, 0x00,
    0xff, 0xff, 0xff, 0xff, 0x70, 0x00, 0x00, 0x00, 0x70, 0xd1, 0xff, 0xff,
    0x3e, 0xfe, 0xff, 0xff, 0x00, 0x00, 0x00, 0x05, 0x01, 0x00, 0x00, 0x00,
    0x38, 0x00, 0x00, 0x00, 0x2c, 0x00, 0x00, 0x00, 0x14, 0x00, 0x00, 0x00,
    0x00, 0x00, 0x0e, 0x00, 0x14, 0x00, 0x00, 0x00, 0x10, 0x00, 0x0c, 0x00,
    0x08, 0x00, 0x04, 0x00, 0x0e, 0x00, 0x00, 0x00, 0x03, 0x00, 0x00, 0x00,
    0x01, 0x00, 0x00, 0x00, 0x03, 0x00, 0x00, 0x00, 0x01, 0x00, 0x00, 0x00,
    0x01, 0x00, 0x00, 0x00, 0x0d, 0x00, 0x00, 0x00, 0x01, 0x00, 0x00, 0x00,
    0x0c, 0x00, 0x00, 0x00, 0x2c, 0xd2, 0xff, 0xff, 0x14, 0x00, 0x00, 0x00,
    0x0e, 0x00, 0x00, 0x00, 0x20, 0x00, 0x00, 0x00, 0x58, 0x00, 0x00, 0x00,
    0x40, 0x00, 0x00, 0x00, 0x04, 0x00, 0x00, 0x00, 0x01, 0x00, 0x00, 0x00,
    0x07, 0x00, 0x00, 0x00, 0x01, 0x00, 0x00, 0x00, 0x10, 0x00, 0x00, 0x00,
    0x22, 0x00, 0x00, 0x00, 0x73, 0x65, 0x71, 0x75, 0x65, 0x6e, 0x74, 0x69,
    0x61, 0x6c, 0x2f, 0x6d, 0x61, 0x78, 0x5f, 0x70, 0x6f, 0x6f, 0x6c, 0x69,
    0x6e, 0x67, 0x32, 0x64, 0x5f, 0x31, 0x2f, 0x4d, 0x61, 0x78, 0x50, 0x6f,
    0x6f, 0x6c, 0x00, 0x00, 0x04, 0x00, 0x00, 0x00, 0xff, 0xff, 0xff, 0xff,
    0x07, 0x00, 0x00, 0x00, 0x01, 0x00, 0x00, 0x00, 0x10, 0x00, 0x00, 0x00,
    0x28, 0xd2, 0xff, 0xff, 0x1a, 0xfe, 0xff, 0xff, 0x00, 0x00, 0x00, 0x01,
    0x24, 0x00, 0x00, 0x00, 0x18, 0x00, 0x00, 0x00, 0x04, 0x00, 0x00, 0x00,
    0x0c, 0xfe, 0xff, 0xff, 0x01, 0x00, 0x00, 0x00, 0x01, 0x00, 0x00, 0x00,
    0x00, 0x00, 0x00, 0x01, 0x01, 0x00, 0x00, 0x00, 0x0c, 0x00, 0x00, 0x00,
    0x03, 0x00, 0x00, 0x00, 0x0b, 0x00, 0x00, 0x00, 0x09, 0x00, 0x00, 0x00,
    0x02, 0x00, 0x00, 0x00, 0xd4, 0xd2, 0xff, 0xff, 0x14, 0x00, 0x00, 0x00,
    0x0d, 0x00, 0x00, 0x00, 0x20, 0x00, 0x00, 0x00, 0xb8, 0x00, 0x00, 0x00,
    0xa0, 0x00, 0x00, 0x00, 0x04, 0x00, 0x00, 0x00, 0x01, 0x00, 0x00, 0x00,
    0x15, 0x00, 0x00, 0x00, 0x01, 0x00, 0x00, 0x00, 0x10, 0x00, 0x00, 0x00,
    0x83, 0x00, 0x00, 0x00, 0x73, 0x65, 0x71, 0x75, 0x65, 0x6e, 0x74, 0x69,
    0x61, 0x6c, 0x2f, 0x63, 0x6f, 0x6e, 0x76, 0x32, 0x64, 0x5f, 0x31, 0x2f,
    0x52, 0x65, 0x6c, 0x75, 0x3b, 0x73, 0x65, 0x71, 0x75, 0x65, 0x6e, 0x74,
    0x69, 0x61, 0x6c, 0x2f, 0x63, 0x6f, 0x6e, 0x76, 0x32, 0x64, 0x5f, 0x31,
    0x2f, 0x42, 0x69, 0x61, 0x73, 0x41, 0x64, 0x64, 0x3b, 0x73, 0x65, 0x71,
    0x75, 0x65, 0x6e, 0x74, 0x69, 0x61, 0x6c, 0x2f, 0x63, 0x6f, 0x6e, 0x76,
    0x32, 0x64, 0x5f, 0x31, 0x2f, 0x43, 0x6f, 0x6e, 0x76, 0x32, 0x44, 0x3b,
    0x73, 0x65, 0x71, 0x75, 0x65, 0x6e, 0x74, 0x69, 0x61, 0x6c, 0x2f, 0x63,
    0x6f, 0x6e, 0x76, 0x32, 0x64, 0x5f, 0x31, 0x2f, 0x42, 0x69, 0x61, 0x73,
    0x41, 0x64, 0x64, 0x2f, 0x52, 0x65, 0x61, 0x64, 0x56, 0x61, 0x72, 0x69,
    0x61, 0x62, 0x6c, 0x65, 0x4f, 0x70, 0x2f, 0x72, 0x65, 0x73, 0x6f, 0x75,
    0x72, 0x63, 0x65, 0x00, 0x04, 0x00, 0x00, 0x00, 0xff, 0xff, 0xff, 0xff,
    0x15, 0x00, 0x00, 0x00, 0x01, 0x00, 0x00, 0x00, 0x10, 0x00, 0x00, 0x00,
    0x40, 0xd4, 0xff, 0xff, 0x00, 0x00, 0x0e, 0x00, 0x1a, 0x00, 0x08, 0x00,
    0x0c, 0x00, 0x10, 0x00, 0x07, 0x00, 0x14, 0x00, 0x0e, 0x00, 0x00, 0x00,
    0x00, 0x00, 0x00, 0x05, 0x01, 0x00, 0x00, 0x00, 0x3c, 0x00, 0x00, 0x00,
    0x30, 0x00, 0x00, 0x00, 0x14, 0x00, 0x00, 0x00, 0x00, 0x00, 0x0e, 0x00,
    0x18, 0x00, 0x17, 0x00, 0x10, 0x00, 0x0c, 0x00, 0x08, 0x00, 0x04, 0x00,
    0x0e, 0x00, 0x00, 0x00, 0x03, 0x00, 0x00, 0x00, 0x03, 0x00, 0x00, 0x00,
    0x03, 0x00, 0x00, 0x00, 0x03, 0x00, 0x00, 0x00, 0x00, 0x00, 0x00, 0x01,
    0x01, 0x00, 0x00, 0x00, 0x0b, 0x00, 0x00, 0x00, 0x01, 0x00, 0x00, 0x00,
    0x0a, 0x00, 0x00, 0x00, 0x2c, 0xff, 0xff, 0xff, 0x11, 0x00, 0x00, 0x00,
    0x00, 0x00, 0x00, 0x11, 0x01, 0x00, 0x00, 0x00, 0x10, 0xd4, 0xff, 0xff,
    0x14, 0x00, 0x00, 0x00, 0x0c, 0x00, 0x00, 0x00, 0x20, 0x00, 0x00, 0x00,
    0x58, 0x00, 0x00, 0x00, 0x40, 0x00, 0x00, 0x00, 0x04, 0x00, 0x00, 0x00,
    0x01, 0x00, 0x00, 0x00, 0x15, 0x00, 0x00, 0x00, 0x01, 0x00, 0x00, 0x00,
    0x08, 0x00, 0x00, 0x00, 0x20, 0x00, 0x00, 0x00, 0x73, 0x65, 0x71, 0x75,
    0x65, 0x6e, 0x74, 0x69, 0x61, 0x6c, 0x2f, 0x6d, 0x61, 0x78, 0x5f, 0x70,
    0x6f, 0x6f, 0x6c, 0x69, 0x6e, 0x67, 0x32, 0x64, 0x2f, 0x4d, 0x61, 0x78,
    0x50, 0x6f, 0x6f, 0x6c, 0x00, 0x00, 0x00, 0x00, 0x04, 0x00, 0x00, 0x00,
    0xff, 0xff, 0xff, 0xff, 0x15, 0x00, 0x00, 0x00, 0x01, 0x00, 0x00, 0x00,
    0x08, 0x00, 0x00, 0x00, 0x1c, 0xd5, 0xff, 0xff, 0x00, 0x00, 0x0e, 0x00,
    0x14, 0x00, 0x00, 0x00, 0x08, 0x00, 0x0c, 0x00, 0x07, 0x00, 0x10, 0x00,
    0x0e, 0x00, 0x00, 0x00, 0x00, 0x00, 0x00, 0x01, 0x30, 0x00, 0x00, 0x00,
    0x24, 0x00, 0x00, 0x00, 0x10, 0x00, 0x00, 0x00, 0x0c, 0x00, 0x10, 0x00,
    0x00, 0x00, 0x04, 0x00, 0x08, 0x00, 0x0f, 0x00, 0x0c, 0x00, 0x00, 0x00,
    0x01, 0x00, 0x00, 0x00, 0x01, 0x00, 0x00, 0x00, 0x00, 0x00, 0x00, 0x01,
    0x01, 0x00, 0x00, 0x00, 0x0a, 0x00, 0x00, 0x00, 0x03, 0x00, 0x00, 0x00,
    0x00, 0x00, 0x00, 0x00, 0x08, 0x00, 0x00, 0x00, 0x01, 0x00, 0x00, 0x00,
    0x0c, 0x00, 0x10, 0x00, 0x0b, 0x00, 0x00, 0x00, 0x0c, 0x00, 0x04, 0x00,
    0x0c, 0x00, 0x00, 0x00, 0x03, 0x00, 0x00, 0x00, 0x00, 0x00, 0x00, 0x03,
    0x01, 0x00, 0x00, 0x00, 0xf0, 0xd4, 0xff, 0xff, 0x14, 0x00, 0x00, 0x00,
    0x0b, 0x00, 0x00, 0x00, 0x20, 0x00, 0x00, 0x00, 0xb0, 0x00, 0x00, 0x00,
    0x98, 0x00, 0x00, 0x00, 0x04, 0x00, 0x00, 0x00, 0x01, 0x00, 0x00, 0x00,
    0x40, 0x00, 0x00, 0x00, 0x03, 0x00, 0x00, 0x00, 0x08, 0x00, 0x00, 0x00,
    0x7b, 0x00, 0x00, 0x00, 0x73, 0x65, 0x71, 0x75, 0x65, 0x6e, 0x74, 0x69,
    0x61, 0x6c, 0x2f, 0x63, 0x6f, 0x6e, 0x76, 0x32, 0x64, 0x2f, 0x52, 0x65,
    0x6c, 0x75, 0x3b, 0x73, 0x65, 0x71, 0x75, 0x65, 0x6e, 0x74, 0x69, 0x61,
    0x6c, 0x2f, 0x63, 0x6f, 0x6e, 0x76, 0x32, 0x64, 0x2f, 0x42, 0x69, 0x61,
    0x73, 0x41, 0x64, 0x64, 0x3b, 0x73, 0x65, 0x71, 0x75, 0x65, 0x6e, 0x74,
    0x69, 0x61, 0x6c, 0x2f, 0x63, 0x6f, 0x6e, 0x76, 0x32, 0x64, 0x2f, 0x43,
    0x6f, 0x6e, 0x76, 0x32, 0x44, 0x3b, 0x73, 0x65, 0x71, 0x75, 0x65, 0x6e,
    0x74, 0x69, 0x61, 0x6c, 0x2f, 0x63, 0x6f, 0x6e, 0x76, 0x32, 0x64, 0x2f,
    0x42, 0x69, 0x61, 0x73, 0x41, 0x64, 0x64, 0x2f, 0x52, 0x65, 0x61, 0x64,
    0x56, 0x61, 0x72, 0x69, 0x61, 0x62, 0x6c, 0x65, 0x4f, 0x70, 0x2f, 0x72,
    0x65, 0x73, 0x6f, 0x75, 0x72, 0x63, 0x65, 0x00, 0x04, 0x00, 0x00, 0x00,
    0xff, 0xff, 0xff, 0xff, 0x40, 0x00, 0x00, 0x00, 0x03, 0x00, 0x00, 0x00,
    0x08, 0x00, 0x00, 0x00, 0x44, 0xd5, 0xff, 0xff, 0x4e, 0xd6, 0xff, 0xff,
    0x04, 0x00, 0x00, 0x00, 0x00, 0x08, 0x00, 0x00, 0xc8, 0x92, 0x76, 0xbe,
    0xa2, 0x90, 0xe6, 0x3d, 0x09, 0xf3, 0xf7, 0x3e, 0x30, 0x60, 0x54, 0x3c,
    0xb6, 0xae, 0x8a, 0xbe, 0xf4, 0x76, 0x90, 0xbd, 0xad, 0x65, 0xdf, 0xbd,
    0xac, 0x85, 0xdc, 0xbd, 0x3a, 0xab, 0xcd, 0x3b, 0x74, 0x59, 0xc3, 0x3c,
    0x3f, 0xf1, 0xd6, 0xbd, 0x3f, 0x79, 0xc0, 0xbd, 0xfa, 0x9b, 0x00, 0xbe,
    0xcc, 0x3d, 0xa4, 0xbe, 0x00, 0x86, 0x23, 0x3c, 0xa3, 0xb6, 0x6f, 0xbe,
    0x87, 0x87, 0x20, 0xbe, 0x55, 0x13, 0xb8, 0xbc, 0x59, 0x87, 0x39, 0xbd,
    0x3e, 0x6f, 0xa4, 0x3d, 0xb5, 0x42, 0x1e, 0xbd, 0xab, 0x9c, 0x25, 0xbe,
    0x6a, 0x8b, 0xcc, 0x3b, 0x8c, 0x16, 0x0d, 0x3e, 0x28, 0x16, 0xab, 0xbc,
    0x5f, 0x4a, 0x83, 0xbd, 0x85, 0x55, 0xab, 0x3b, 0xe9, 0xfe, 0x00, 0xbe,
    0xe9, 0xaa, 0xa1, 0xbc, 0xc4, 0x74, 0xb8, 0xbd, 0xd6, 0x09, 0x1a, 0xbe,
    0xa4, 0xc4, 0xfa, 0xbd, 0xc5, 0x47, 0x46, 0x3d, 0x7a, 0xe6, 0x8f, 0xbd,
    0x69, 0x6c, 0x90, 0xbe, 0x90, 0x49, 0x11, 0xbe, 0x9c, 0x04, 0xbf, 0xbd,
    0xbf, 0xca, 0x93, 0xbe, 0x0b, 0x3f, 0xad, 0xbe, 0xc2, 0x41, 0xb7, 0xbd,
    0x42, 0xeb, 0x65, 0xbb, 0x20, 0xbb, 0x51, 0x3d, 0x9f, 0x0b, 0xc9, 0x3e,
    0x66, 0x81, 0x02, 0xbe, 0xbd, 0x0d, 0x6f, 0xbe, 0x43, 0x2d, 0xfd, 0xbd,
    0xf9, 0x5a, 0x0d, 0xbd, 0x3b, 0x05, 0x29, 0xbe, 0xb6, 0x55, 0x82, 0xbc,
    0x0f, 0x36, 0x9d, 0xbb, 0x07, 0x01, 0x5b, 0xbe, 0xae, 0x34, 0xbc, 0xbd,
    0x2b, 0x67, 0xb5, 0xbd, 0x4f, 0x85, 0xa4, 0x3d, 0x12, 0x9f, 0xb9, 0xbe,
    0xce, 0xa4, 0x83, 0xbe, 0x38, 0xf9, 0x63, 0x3b, 0x7b, 0x60, 0xce, 0xbd,
    0x95, 0xb0, 0x03, 0xbd, 0x71, 0x69, 0x29, 0xbe, 0x60, 0xe7, 0xa5, 0xbe,
    0x20, 0x26, 0xac, 0xbc, 0xab, 0x51, 0x2f, 0xbe, 0xe0, 0xb3, 0x06, 0x3d,
    0x2c, 0x16, 0x2e, 0x3d, 0x87, 0x6d, 0x0d, 0x3d, 0x6b, 0x11, 0x25, 0x3f,
    0xc2, 0x7d, 0x56, 0x3d, 0x82, 0xb4, 0x84, 0xbe, 0x87, 0xc4, 0x25, 0x3c,
    0xe2, 0xe8, 0x99, 0xbd, 0x14, 0x3f, 0x9f, 0x3e, 0xa4, 0xef, 0xcd, 0xbc,
    0x70, 0x60, 0x8c, 0xbc, 0x13, 0x8d, 0xe7, 0xbd, 0xe4, 0x97, 0x25, 0x3d,
    0x8e, 0x00, 0xaf, 0xbe, 0x00, 0xd9, 0x8c, 0xbd, 0x15, 0xec, 0x40, 0xbe,
    0x7c, 0xaf, 0x26, 0xbd, 0x5a, 0xe8, 0x19, 0xbd, 0x9d, 0xb6, 0x93, 0x3d,
    0xd1, 0x8a, 0xc9, 0xbb, 0x6b, 0xa9, 0x0c, 0xbe, 0xe5, 0x67, 0x19, 0xbe,
    0x6d, 0x79, 0x48, 0xbe, 0xb4, 0x9a, 0xa0, 0xbd, 0xf6, 0xfc, 0x16, 0xbe,
    0xa4, 0xd2, 0x4d, 0xbd, 0xe7, 0x02, 0xd8, 0xbc, 0xb6, 0xe2, 0x4e, 0x3d,
    0xb1, 0x64, 0x50, 0xbe, 0x53, 0x10, 0xae, 0xbd, 0x2f, 0x90, 0x55, 0xbe,
    0x35, 0xaa, 0xa4, 0x3a, 0x76, 0x4a, 0x6d, 0xbe, 0xbb, 0xa3, 0x73, 0xbd,
    0xdc, 0xe5, 0x40, 0x3f, 0x80, 0x2b, 0x22, 0x3d, 0xb9, 0x4f, 0x17, 0xbe,
    0x1f, 0xc3, 0x8e, 0xbd, 0x9c, 0xb8, 0xe2, 0xbd, 0x3f, 0xa8, 0x68, 0xbe,
    0x86, 0xa2, 0x81, 0xbd, 0xba, 0x18, 0x19, 0xbd, 0x09, 0x5b, 0x11, 0xbe,
    0xf5, 0x6d, 0x8e, 0xbc, 0x1e, 0x4c, 0x91, 0x3e, 0x2f, 0x55, 0xbc, 0x3c,
    0x2b, 0xc9, 0xa9, 0xbd, 0x0a, 0x62, 0x4a, 0x3c, 0x76, 0x9a, 0xb8, 0xbc,
    0xbb, 0x14, 0xa5, 0xbc, 0x41, 0x3d, 0xfc, 0xbe, 0x75, 0xff, 0x2e, 0x3e,
    0x2f, 0xa6, 0x23, 0x3d, 0xd8, 0xab, 0x17, 0x3c, 0x62, 0x8b, 0xb4, 0x3e,
    0xe0, 0xa8, 0xf6, 0x3c, 0x37, 0xee, 0x8c, 0xbd, 0x83, 0x4f, 0xfc, 0x3b,
    0xe2, 0xad, 0x5d, 0xbe, 0x7c, 0x7d, 0xca, 0xbe, 0x49, 0x32, 0xa2, 0xbd,
    0x45, 0x05, 0x9a, 0x3c, 0xdf, 0x24, 0x01, 0xbd, 0xac, 0x26, 0xc3, 0xbc,
    0x36, 0x6d, 0x45, 0x3c, 0xdf, 0x58, 0x9f, 0x3e, 0xec, 0x53, 0x8f, 0x3e,
    0x9d, 0xc8, 0xb7, 0x3e, 0xef, 0x9d, 0x03, 0xbe, 0xca, 0x49, 0x9a, 0xbe,
    0x2c, 0x9c, 0x4f, 0xbe, 0x2f, 0x7e, 0x46, 0xbe, 0xde, 0xa3, 0x3b, 0xbd,
    0x94, 0xf8, 0xdd, 0xbd, 0xc5, 0x02, 0x38, 0xbd, 0xb4, 0x42, 0x05, 0x3e,
    0x19, 0xb8, 0x57, 0xbe, 0xcb, 0x3a, 0x42, 0xbe, 0x8c, 0xb8, 0x60, 0xbe,
    0x12, 0x25, 0x16, 0xbe, 0x4e, 0x9b, 0x2c, 0xbe, 0x07, 0x8f, 0x55, 0xbe,
    0x03, 0x1d, 0x16, 0x3d, 0x45, 0x07, 0x54, 0x3e, 0x58, 0x02, 0x2e, 0xbe,
    0x22, 0xc1, 0xf1, 0xbd, 0x56, 0x11, 0x0a, 0xbe, 0x89, 0xc8, 0x0d, 0x3e,
    0x39, 0x58, 0xac, 0xbd, 0x40, 0x51, 0x2e, 0xbe, 0xf8, 0x41, 0x65, 0x3d,
    0x2f, 0xc7, 0x2a, 0x3e, 0xde, 0x28, 0x9f, 0x3d, 0x0b, 0x4f, 0x9a, 0xbd,
    0xd8, 0x13, 0x2d, 0x3b, 0x6d, 0xa1, 0x02, 0x3d, 0x1c, 0x22, 0xe7, 0x3d,
    0x3b, 0x47, 0x95, 0xbe, 0x36, 0x15, 0x1c, 0x3e, 0x0e, 0x0f, 0xff, 0xbd,
    0x00, 0x62, 0xa1, 0x3e, 0x8e, 0x77, 0xd9, 0x3e, 0x64, 0xaa, 0xf7, 0x3b,
    0x4b, 0xaf, 0xce, 0x3e, 0xed, 0xde, 0x30, 0xbd, 0xfc, 0x15, 0x97, 0xbe,
    0x79, 0x9f, 0xa9, 0x3c, 0xef, 0xcb, 0x85, 0xbd, 0x1e, 0xf3, 0x85, 0xbe,
    0x5a, 0x76, 0x22, 0x3e, 0x35, 0xc5, 0x27, 0xbd, 0x69, 0xa3, 0xfe, 0x3b,
    0xb6, 0xd3, 0xad, 0xbd, 0xbf, 0x96, 0x57, 0xbe, 0xc7, 0x8f, 0x57, 0x3e,
    0x37, 0xc6, 0x42, 0x3c, 0xed, 0x5e, 0xf8, 0xbd, 0x08, 0xa5, 0x37, 0xbe,
    0x5d, 0x98, 0xf9, 0x3d, 0x43, 0xef, 0x9b, 0x3e, 0x84, 0x40, 0x4a, 0xbe,
    0x62, 0x76, 0x3e, 0xbe, 0x07, 0xe9, 0xa6, 0x3e, 0xa7, 0xd2, 0xfc, 0x3c,
    0x09, 0x35, 0x08, 0x3d, 0x30, 0xa3, 0x48, 0x3e, 0x63, 0x6d, 0xf9, 0xbd,
    0x26, 0x17, 0x54, 0xbd, 0x0b, 0x2e, 0xdc, 0xbd, 0xbb, 0x37, 0x0a, 0xbe,
    0xd8, 0x1d, 0xef, 0x3d, 0x67, 0xa2, 0x35, 0xbd, 0xe0, 0x9c, 0x4e, 0x3e,
    0x6e, 0x37, 0xc5, 0xbd, 0x88, 0x79, 0x8d, 0xbe, 0x2b, 0xa5, 0x7d, 0xbe,
    0x4f, 0x44, 0x75, 0xbe, 0xc1, 0x92, 0x0b, 0xbe, 0x24, 0xed, 0xe5, 0x3d,
    0xbc, 0xbe, 0x4d, 0xbe, 0xe0, 0x9b, 0xb0, 0x3e, 0xb7, 0x3a, 0x9e, 0x3d,
    0x9f, 0x25, 0x49, 0xbe, 0xa2, 0xb6, 0x29, 0x3d, 0xf2, 0x71, 0x25, 0xbd,
    0xa7, 0x2f, 0xdb, 0xbd, 0x48, 0x76, 0x61, 0xbf, 0x7a, 0xed, 0x8b, 0xbc,
    0x38, 0x83, 0xf6, 0xbe, 0x8d, 0xf8, 0xf8, 0xbc, 0x6a, 0x0d, 0xa6, 0x3d,
    0x40, 0xcb, 0x36, 0x3e, 0xa7, 0xd9, 0x86, 0x3c, 0x60, 0xe4, 0x84, 0x3d,
    0xd6, 0xec, 0x22, 0xbe, 0xaf, 0xc4, 0x9a, 0x3e, 0xf1, 0x20, 0x9b, 0xbe,
    0xbf, 0x8b, 0x18, 0xbe, 0x96, 0xb8, 0x06, 0x3f, 0xc7, 0xb8, 0x02, 0x3e,
    0x8b, 0x8f, 0x20, 0x3d, 0xc5, 0x94, 0xbe, 0xbe, 0x5a, 0xda, 0x8d, 0x3e,
    0x74, 0x98, 0xf1, 0x3d, 0x6b, 0xe3, 0xee, 0x3d, 0xdf, 0x75, 0xa7, 0x3e,
    0xf2, 0x47, 0x25, 0xbe, 0x77, 0x89, 0xa0, 0x3e, 0xac, 0xce, 0x58, 0x3b,
    0xe1, 0x5b, 0xd2, 0xbe, 0xb2, 0xec, 0xa0, 0x3d, 0x56, 0x2b, 0x74, 0x3b,
    0x9e, 0xac, 0x75, 0x3c, 0x09, 0x4a, 0x5f, 0x3e, 0x43, 0xe6, 0x8c, 0x3e,
    0x5a, 0x8e, 0xf7, 0xbd, 0x87, 0x4f, 0x12, 0xbe, 0x20, 0x00, 0xbe, 0xbe,
    0x28, 0xf3, 0xab, 0x3d, 0x88, 0x6c, 0x77, 0x3d, 0x90, 0xab, 0x7a, 0x3b,
    0x7f, 0xc1, 0xae, 0x3c, 0x0b, 0x4f, 0x3f, 0xbd, 0xeb, 0xc1, 0xb4, 0xbc,
    0x0d, 0xfc, 0xba, 0xbd, 0x4e, 0xc0, 0xa1, 0xbe, 0xc1, 0xd2, 0xb7, 0x3e,
    0x64, 0x1e, 0xf3, 0x3d, 0xd6, 0xe6, 0x99, 0xbd, 0x9b, 0xa0, 0x95, 0xbe,
    0x4a, 0x3c, 0x7e, 0x3e, 0x3a, 0xd0, 0x4d, 0x3d, 0xfc, 0x0d, 0xc0, 0xbd,
    0x39, 0x50, 0xc0, 0xbd, 0x50, 0x5b, 0x1b, 0xbd, 0xf6, 0x79, 0x72, 0xbc,
    0x42, 0x32, 0xaf, 0xbd, 0xc3, 0xaa, 0x6b, 0x3c, 0xa8, 0xa7, 0x8d, 0xbd,
    0x1e, 0x4e, 0x9d, 0xbd, 0xb3, 0xc1, 0xba, 0x3c, 0xaf, 0x06, 0x90, 0xbd,
    0x1a, 0x11, 0x1a, 0xbe, 0xf8, 0x83, 0x92, 0x3c, 0x2b, 0x64, 0x28, 0xbc,
    0xe5, 0x28, 0xb6, 0xbc, 0x07, 0x46, 0xb3, 0xbd, 0x98, 0xdb, 0xe8, 0x3b,
    0x0c, 0xb6, 0x55, 0xbd, 0xaf, 0x73, 0x05, 0xbd, 0x50, 0xcc, 0xb3, 0xbd,
    0xd9, 0x55, 0x8b, 0x3e, 0x63, 0x7f, 0x4d, 0x3c, 0xec, 0x26, 0xc5, 0xbc,
    0xb5, 0x80, 0x0f, 0xbe, 0xb8, 0xbc, 0x6f, 0xbd, 0xdf, 0x1f, 0x87, 0xbc,
    0x07, 0x57, 0x56, 0x3d, 0x9a, 0x00, 0xa6, 0x3e, 0xec, 0x0d, 0xf4, 0xbd,
    0xd4, 0x7d, 0xa3, 0xbd, 0xa3, 0xa6, 0x86, 0xbd, 0xf4, 0xd4, 0xe3, 0x3e,
    0x12, 0x62, 0x28, 0x3e, 0x2e, 0xef, 0xcd, 0x3d, 0xf1, 0x6d, 0x6d, 0xbe,
    0x6b, 0xbb, 0x92, 0xbe, 0x47, 0x26, 0x81, 0xbe, 0x6a, 0xb7, 0xd2, 0xbd,
    0x44, 0x56, 0xef, 0xbd, 0x2e, 0xb5, 0x28, 0xbf, 0xca, 0x75, 0x6d, 0xbe,
    0x96, 0xe7, 0x16, 0xbe, 0x77, 0x76, 0x49, 0xbe, 0x80, 0xb9, 0x18, 0x3f,
    0x9c, 0xc1, 0x09, 0xbd, 0xf2, 0xc5, 0xe5, 0x3e, 0xce, 0x28, 0x0d, 0x3e,
    0x8d, 0xef, 0x27, 0xbf, 0xe8, 0x89, 0x42, 0x3c, 0x32, 0x7b, 0xec, 0xbd,
    0x67, 0x99, 0x63, 0xbe, 0x6e, 0x76, 0xd3, 0x3c, 0x00, 0x94, 0x2f, 0xbe,
    0xde, 0x45, 0x24, 0xbd, 0x06, 0x25, 0x66, 0x3c, 0x84, 0xcf, 0xe8, 0xbb,
    0x2a, 0xea, 0x1e, 0x3e, 0x57, 0x5f, 0x13, 0xbe, 0x3e, 0x91, 0x88, 0xbe,
    0xb3, 0x62, 0x8a, 0x3e, 0x9d, 0x69, 0xa6, 0xbd, 0xa0, 0xbb, 0xef, 0xbd,
    0xb4, 0x4e, 0xc5, 0x3b, 0x68, 0xc7, 0x1e, 0x3e, 0x81, 0x77, 0x74, 0x3c,
    0x2f, 0xe8, 0x02, 0xbe, 0x18, 0x13, 0xe5, 0xbd, 0x38, 0x7c, 0xc3, 0xbe,
    0xe4, 0x64, 0x89, 0xbe, 0xbf, 0x81, 0xc0, 0xbd, 0x56, 0xfe, 0xbe, 0xbd,
    0x7d, 0xec, 0x9d, 0xbe, 0xc1, 0x90, 0xd2, 0xbd, 0x2a, 0xbf, 0x89, 0xbe,
    0x45, 0x1f, 0x37, 0x3e, 0xcd, 0x9b, 0x45, 0xbe, 0x54, 0x05, 0xa6, 0xbd,
    0x7e, 0xaa, 0xa2, 0xbe, 0x24, 0x96, 0xb9, 0xbd, 0x13, 0x95, 0x42, 0xbd,
    0x54, 0x27, 0xea, 0x3d, 0x72, 0xac, 0x17, 0xbe, 0x17, 0xd9, 0x3b, 0x3e,
    0x6a, 0x8e, 0xdc, 0x3c, 0xfe, 0x25, 0x56, 0xbc, 0xe3, 0x46, 0x84, 0x3e,
    0x56, 0x4c, 0xce, 0xbd, 0xd0, 0xb9, 0x6f, 0xbd, 0xab, 0x42, 0x36, 0xbe,
    0x37, 0x98, 0x49, 0xbd, 0xf4, 0xa0, 0x77, 0x3c, 0x13, 0xbd, 0x10, 0x3e,
    0x32, 0xa6, 0x2f, 0x3b, 0xfe, 0x00, 0xe9, 0x3d, 0x2b, 0x16, 0xb3, 0x3d,
    0xf7, 0x11, 0x43, 0x3d, 0x0f, 0x11, 0x0a, 0x3e, 0x7c, 0x0e, 0xa2, 0xbc,
    0xc4, 0xd1, 0x5c, 0xbe, 0x90, 0x21, 0xb6, 0xbe, 0x0a, 0x23, 0xef, 0x3c,
    0x9b, 0x57, 0xda, 0xbe, 0xc8, 0x96, 0x68, 0x3e, 0xae, 0x4c, 0xc6, 0x3e,
    0x34, 0x6a, 0x20, 0x3e, 0x4c, 0x2e, 0xbf, 0xbc, 0x66, 0x1c, 0x56, 0xbe,
    0xbb, 0x12, 0x33, 0x3e, 0x9b, 0x07, 0xe2, 0x3d, 0x39, 0xc8, 0xe8, 0xbc,
    0x4f, 0x56, 0x1e, 0xbe, 0xfc, 0x06, 0xdf, 0x3d, 0xac, 0xc3, 0x22, 0xbe,
    0xf2, 0x16, 0x39, 0xbe, 0x94, 0x79, 0x6a, 0xbe, 0x30, 0xa0, 0x25, 0x3e,
    0xcb, 0xbb, 0x8e, 0x3d, 0x03, 0x91, 0xfd, 0x3d, 0x9d, 0x59, 0xf3, 0x3d,
    0xea, 0xec, 0x1f, 0x3d, 0x84, 0xf9, 0x23, 0x3e, 0xb1, 0xf1, 0x89, 0x3d,
    0x4a, 0x7d, 0x79, 0xbe, 0x2e, 0x1f, 0x97, 0x3c, 0x01, 0x6c, 0x73, 0x3e,
    0xac, 0x94, 0xa3, 0xbd, 0x26, 0xe5, 0xe0, 0xbc, 0x05, 0x1c, 0xfb, 0x3d,
    0x68, 0xee, 0x68, 0xbd, 0x72, 0x0e, 0xdb, 0x3c, 0x4f, 0x19, 0xcd, 0xbc,
    0x38, 0xf5, 0x7d, 0xbd, 0x08, 0x0d, 0xd4, 0xbd, 0x3a, 0xdf, 0x6e, 0xbd,
    0xbf, 0x5d, 0x66, 0xbd, 0x33, 0xb8, 0x41, 0xbc, 0x93, 0x4a, 0x0e, 0xbe,
    0x4f, 0x0b, 0xf4, 0x3d, 0xa5, 0x1a, 0x56, 0xbc, 0x78, 0xf9, 0x26, 0x3e,
    0xfd, 0x4b, 0xcb, 0xbc, 0xa3, 0x6b, 0xf1, 0x3d, 0x36, 0x6c, 0xed, 0xbc,
    0x04, 0x50, 0xf6, 0xbb, 0xd5, 0xca, 0xa5, 0x3e, 0x3e, 0x76, 0xdd, 0xbd,
    0x85, 0x1a, 0x08, 0x3e, 0x7c, 0x94, 0x24, 0x3d, 0x03, 0x86, 0xb5, 0xbd,
    0xe1, 0xba, 0x87, 0xbd, 0x9e, 0xae, 0x37, 0x3e, 0xf8, 0x41, 0xbb, 0x3d,
    0xa3, 0x94, 0x8f, 0xbd, 0x9a, 0xfa, 0x7f, 0xbd, 0x94, 0xf7, 0x44, 0x3e,
    0x8a, 0x73, 0x33, 0xbd, 0x71, 0x4b, 0x0e, 0xbe, 0x4d, 0x00, 0x0a, 0x3c,
    0x07, 0xf6, 0xce, 0xbb, 0x8e, 0xae, 0x88, 0x3d, 0xb8, 0xb8, 0x1f, 0xbe,
    0x09, 0x55, 0x59, 0x3d, 0x0e, 0x68, 0xcd, 0x3d, 0xf1, 0x21, 0xe2, 0x3d,
    0x40, 0x85, 0xce, 0x3d, 0xe8, 0x6b, 0x02, 0x3e, 0xcf, 0x00, 0x61, 0xbe,
    0xba, 0x40, 0x93, 0x3c, 0x16, 0xfb, 0xda, 0xbd, 0x2a, 0xfb, 0x43, 0x3f,
    0x41, 0x85, 0x95, 0xbd, 0x44, 0x26, 0xc3, 0x3d, 0xb4, 0x4c, 0x90, 0x3e,
    0xdd, 0xc0, 0x63, 0xbd, 0x6c, 0xf4, 0x24, 0xbf, 0xfd, 0x5e, 0x2f, 0xbd,
    0xfb, 0x62, 0xbe, 0xbe, 0xa9, 0x2a, 0x2e, 0xbe, 0xa1, 0x44, 0x8f, 0xbd,
    0xf0, 0x1e, 0x53, 0x3e, 0x05, 0x61, 0x98, 0x3c, 0x6a, 0x07, 0x41, 0x3c,
    0x7f, 0x73, 0x85, 0xbe, 0xec, 0x11, 0x24, 0xbe, 0x8a, 0x26, 0x98, 0xbd,
    0x55, 0xaa, 0x88, 0xbe, 0x0a, 0x98, 0xa1, 0xbd, 0xcc, 0x42, 0x09, 0x3d,
    0xb1, 0xcd, 0x28, 0x3d, 0xc9, 0x89, 0x53, 0x3d, 0xe1, 0xa8, 0x11, 0xbe,
    0xda, 0x05, 0x52, 0xbe, 0x7b, 0x4b, 0xb9, 0x3d, 0x3e, 0xde, 0xaa, 0xbe,
    0xbb, 0x2a, 0xe8, 0x38, 0x88, 0xf2, 0x8d, 0x3e, 0xc7, 0xf2, 0x09, 0x3d,
    0xfa, 0x0b, 0x2b, 0xbe, 0xbd, 0x36, 0x9c, 0xbe, 0xcf, 0x75, 0x27, 0x3d,
    0x1e, 0xd0, 0xd2, 0xbe, 0x43, 0x2e, 0x6e, 0xbe, 0x23, 0x7c, 0xd9, 0xbd,
    0xcc, 0xf7, 0x1e, 0xbc, 0x54, 0x66, 0x96, 0xbd, 0x50, 0x20, 0x68, 0x3d,
    0x92, 0x01, 0x33, 0xbe, 0x83, 0xa3, 0xdc, 0xbd, 0x1d, 0xc3, 0x89, 0xbe,
    0x17, 0xf8, 0xef, 0xbe, 0x00, 0x8a, 0xcc, 0xbb, 0x82, 0xdb, 0x86, 0x3e,
    0xb6, 0x4a, 0x00, 0x3f, 0xa9, 0x97, 0xc4, 0xbd, 0x2b, 0x61, 0xc9, 0x3d,
    0x7d, 0x11, 0x0e, 0xbe, 0xa7, 0x78, 0xb8, 0xbc, 0x30, 0x44, 0xe8, 0xbd,
    0x74, 0xd3, 0x20, 0xbc, 0x98, 0xe8, 0x23, 0x3d, 0x34, 0x35, 0x01, 0x3e,
    0x7a, 0x4e, 0x3e, 0x3e, 0x2b, 0x8f, 0xe9, 0x3d, 0xf7, 0x09, 0xc6, 0xbd,
    0xfb, 0x65, 0x0e, 0x3e, 0xbf, 0xb8, 0xc7, 0x3c, 0x25, 0xf7, 0x9e, 0xbd,
    0x58, 0x91, 0xa6, 0x3e, 0x3e, 0xaf, 0x75, 0x3d, 0x17, 0x00, 0xdc, 0x3e,
    0x3a, 0x06, 0x41, 0x3e, 0xc1, 0x6b, 0x15, 0xbd, 0x24, 0x19, 0x91, 0x3e,
    0xc9, 0x31, 0xb7, 0x3d, 0x8f, 0x40, 0x1e, 0xbe, 0xa0, 0xca, 0x8d, 0xbe,
    0x2b, 0xeb, 0x0f, 0x3a, 0xc4, 0x4a, 0xb0, 0xbe, 0x40, 0x01, 0x9c, 0xbc,
    0x63, 0x0d, 0x50, 0x3d, 0x83, 0xce, 0x0b, 0x3e, 0xe7, 0x89, 0x98, 0x3d,
    0x0d, 0x55, 0xa0, 0xbd, 0xce, 0x8a, 0xb4, 0xbe, 0x70, 0x2d, 0x8f, 0x3d,
    0xea, 0xbd, 0xdf, 0xbe, 0x1e, 0x06, 0x59, 0x3d, 0x80, 0x6b, 0xf6, 0x3d,
    0xcb, 0xbd, 0x9c, 0x3c, 0xae, 0x32, 0x15, 0xbe, 0xfa, 0x23, 0xa8, 0xbc,
    0xb1, 0xc8, 0x9b, 0x3d, 0x79, 0x3e, 0x01, 0xbe, 0xcf, 0x4a, 0x9b, 0xbe,
    0x5d, 0x25, 0xc2, 0xbe, 0xda, 0xde, 0xdb, 0x3c, 0x23, 0x36, 0x04, 0xbf,
    0x97, 0xdd, 0xc5, 0xbe, 0x26, 0xde, 0xff, 0xff, 0x10, 0x00, 0x00, 0x00,
    0x0a, 0x00, 0x00, 0x00, 0x1c, 0x00, 0x00, 0x00, 0x38, 0x00, 0x00, 0x00,
    0x04, 0x00, 0x00, 0x00, 0x10, 0x00, 0x00, 0x00, 0x04, 0x00, 0x00, 0x00,
    0x01, 0x00, 0x00, 0x00, 0x08, 0x00, 0x00, 0x00, 0x1a, 0x00, 0x00, 0x00,
    0x73, 0x65, 0x71, 0x75, 0x65, 0x6e, 0x74, 0x69, 0x61, 0x6c, 0x2f, 0x63,
    0x6f, 0x6e, 0x76, 0x32, 0x64, 0x5f, 0x31, 0x2f, 0x43, 0x6f, 0x6e, 0x76,
    0x32, 0x44, 0x00, 0x00, 0x9c, 0xdd, 0xff, 0xff, 0xa6, 0xde, 0xff, 0xff,
    0x04, 0x00, 0x00, 0x00, 0x80, 0x01, 0x00, 0x00, 0xd5, 0x44, 0x18, 0xbe,
    0x27, 0xe8, 0x92, 0xbc, 0x2e, 0x38, 0x4c, 0x3e, 0xf0, 0xbf, 0x1e, 0xbd,
    0xa0, 0xeb, 0xce, 0x3b, 0x70, 0xf5, 0xc0, 0x3d, 0xf2, 0xa2, 0xb4, 0xbc,
    0xea, 0xa7, 0x5c, 0x3d, 0xc2, 0x26, 0xcc, 0x3c, 0x9b, 0xd6, 0x9e, 0xbd,
    0xba, 0xb4, 0x24, 0x3e, 0xdb, 0x65, 0x7e, 0x3d, 0xfd, 0x2a, 0x7b, 0xbd,
    0x3b, 0x80, 0x41, 0xbd, 0x16, 0x07, 0xab, 0xbc, 0x2a, 0x0b, 0xc3, 0xbe,
    0xf5, 0x11, 0xd5, 0xbe, 0xda, 0x2f, 0x96, 0xbe, 0xa3, 0x7b, 0x9a, 0x3e,
    0x07, 0x10, 0x87, 0x3e, 0xcd, 0xa2, 0x1a, 0x3e, 0xdd, 0x6e, 0xf3, 0x3d,
    0x08, 0x21, 0x73, 0x3e, 0x9f, 0x8e, 0x28, 0x3e, 0x9a, 0x9b, 0x9e, 0x3e,
    0x58, 0x32, 0xa9, 0xbe, 0x77, 0x80, 0xd6, 0x3d, 0xc3, 0xab, 0x9e, 0x3d,
    0x31, 0xd4, 0x40, 0xbe, 0x23, 0x28, 0x29, 0x3e, 0xe3, 0xf9, 0x68, 0xbe,
    0x2b, 0x26, 0x02, 0x3e, 0x3c, 0xeb, 0xa8, 0xbd, 0x5e, 0x5b, 0xc8, 0xbd,
    0x55, 0x9d, 0xc8, 0x3e, 0x75, 0x8a, 0x48, 0xbe, 0x79, 0x18, 0xc6, 0xbb,
    0x06, 0xd3, 0x2d, 0xbc, 0xaf, 0x16, 0x6a, 0xbd, 0x47, 0x87, 0x41, 0xbe,
    0xd3, 0xdf, 0xa8, 0xbe, 0xc6, 0x16, 0x71, 0xbe, 0x8f, 0x2c, 0x10, 0x3e,
    0xd0, 0x7f, 0x50, 0x3e, 0x4c, 0xd4, 0xbb, 0x3d, 0x48, 0xcd, 0x33, 0x3e,
    0xc6, 0xe3, 0x67, 0x3e, 0x0c, 0x75, 0x5f, 0x3e, 0xf2, 0x96, 0x5f, 0x3e,
    0xd2, 0x2a, 0x41, 0xbe, 0xd2, 0xc4, 0x91, 0x3c, 0xfb, 0xcc, 0x0a, 0x3f,
    0xc7, 0xfd, 0x84, 0x3d, 0x20, 0x3c, 0xad, 0xbd, 0x0e, 0x6c, 0xe6, 0xbd,
    0x44, 0x84, 0x8f, 0x3e, 0xb1, 0x13, 0x28, 0xbe, 0xba, 0x29, 0x74, 0xbe,
    0x57, 0x3d, 0x43, 0xbc, 0xe2, 0xc7, 0x05, 0x3e, 0xc4, 0xf2, 0x31, 0xbd,
    0xed, 0xef, 0x25, 0x3e, 0x7a, 0x52, 0xba, 0x3e, 0x9d, 0x35, 0x71, 0x3e,
    0x06, 0x79, 0xf9, 0xbd, 0x50, 0xad, 0xc0, 0xbd, 0x51, 0x9a, 0xb2, 0xbd,
    0x43, 0x66, 0x04, 0x3d, 0x4d, 0x7f, 0x72, 0xbe, 0x5c, 0x30, 0x9a, 0xbd,
    0x69, 0x17, 0x3f, 0xbe, 0xf9, 0x3f, 0x41, 0xbe, 0x51, 0x17, 0xbd, 0x3e,
    0x3d, 0xf6, 0x29, 0xbd, 0x84, 0x09, 0x83, 0xbd, 0x96, 0xc7, 0x96, 0x3d,
    0x40, 0x52, 0xa6, 0x3d, 0xcd, 0x6c, 0x98, 0x3c, 0x78, 0x15, 0x0d, 0x3e,
    0x1d, 0x25, 0x9c, 0x3e, 0x7c, 0x3b, 0x20, 0x3e, 0x2c, 0x9f, 0xc3, 0xbe,
    0x3a, 0x53, 0x8a, 0xbe, 0xeb, 0x1a, 0x3b, 0xbe, 0x58, 0x2c, 0xbe, 0x3c,
    0xdb, 0x80, 0xbd, 0x3d, 0xe4, 0xa1, 0xa6, 0xbd, 0x6a, 0x89, 0xd6, 0xbd,
    0x13, 0xfb, 0x6a, 0x3e, 0xf8, 0x78, 0x17, 0xbe, 0xaa, 0xee, 0xc4, 0x3d,
    0x37, 0xff, 0x4f, 0x3e, 0x42, 0x1a, 0x2f, 0xbe, 0x49, 0xe8, 0x3d, 0x3e,
    0x24, 0x86, 0xd4, 0xbe, 0xfc, 0xa5, 0x2a, 0x3e, 0xfe, 0xdf, 0xff, 0xff,
    0x10, 0x00, 0x00, 0x00, 0x09, 0x00, 0x00, 0x00, 0x1c, 0x00, 0x00, 0x00,
    0x38, 0x00, 0x00, 0x00, 0x04, 0x00, 0x00, 0x00, 0x08, 0x00, 0x00, 0x00,
    0x04, 0x00, 0x00, 0x00, 0x03, 0x00, 0x00, 0x00, 0x01, 0x00, 0x00, 0x00,
    0x18, 0x00, 0x00, 0x00, 0x73, 0x65, 0x71, 0x75, 0x65, 0x6e, 0x74, 0x69,
    0x61, 0x6c, 0x2f, 0x63, 0x6f, 0x6e, 0x76, 0x32, 0x64, 0x2f, 0x43, 0x6f,
    0x6e, 0x76, 0x32, 0x44, 0x00, 0x00, 0x00, 0x00, 0x74, 0xdf, 0xff, 0xff,
    0x7e, 0xe0, 0xff, 0xff, 0x04, 0x00, 0x00, 0x00, 0xc0, 0x00, 0x00, 0x00,
    0x57, 0x11, 0x54, 0xbe, 0x78, 0x71, 0xe8, 0x3e, 0x7f, 0x7d, 0x87, 0x3d,
    0x27, 0xb6, 0x91, 0x3f, 0x1d, 0xd4, 0xa1, 0xbd, 0xfe, 0x25, 0x17, 0xbe,
    0x21, 0x1c, 0xac, 0xbe, 0xfd, 0x35, 0x4c, 0x3e, 0xe7, 0xd5, 0xa5, 0xbd,
    0x59, 0x49, 0x7e, 0xbc, 0x34, 0x9d, 0x3f, 0x3e, 0x7f, 0x1b, 0x47, 0x3e,
    0xef, 0xb4, 0x03, 0x3f, 0x28, 0xfc, 0x34, 0x3e, 0xb7, 0x70, 0xe2, 0x3e,
    0xc3, 0x6d, 0xee, 0xbd, 0x2d, 0xa5, 0x68, 0xbe, 0x85, 0x46, 0x9a, 0xbe,
    0xb2, 0x1c, 0xfd, 0x3d, 0xdf, 0x5f, 0xa8, 0x3d, 0x5f, 0x07, 0xd2, 0xbd,
    0xdd, 0x52, 0xb5, 0xbd, 0xfd, 0x08, 0x9c, 0xbe, 0x60, 0x7a, 0x3b, 0xbe,
    0x9e, 0xec, 0xe1, 0x3d, 0xf9, 0x04, 0x0e, 0x3d, 0xd9, 0xf4, 0xae, 0xbe,
    0xf4, 0xae, 0xb7, 0xbe, 0x87, 0xb5, 0x90, 0x3d, 0x55, 0xe7, 0x5e, 0x3e,
    0xab, 0x77, 0xef, 0x3e, 0x19, 0x9f, 0x06, 0xbd, 0xea, 0x62, 0x81, 0xbe,
    0x08, 0x58, 0x1d, 0xbf, 0x1f, 0x71, 0x94, 0xbb, 0x1a, 0xe0, 0xc0, 0xbe,
    0x43, 0x80, 0xe1, 0xbd, 0x44, 0xcb, 0x28, 0xbe, 0x52, 0xb6, 0xcf, 0xbe,
    0x25, 0xad, 0x04, 0x3e, 0x8c, 0xce, 0xbf, 0x3d, 0x18, 0xf3, 0x5f, 0x3d,
    0x39, 0x45, 0x08, 0xbf, 0x54, 0xd0, 0xc2, 0x3e, 0xd8, 0x00, 0x0e, 0xbf,
    0x74, 0x04, 0x13, 0x3e, 0xa0, 0xe7, 0xfc, 0x3e, 0x6e, 0x6a, 0xfd, 0xbd,
    0x16, 0xe1, 0xff, 0xff, 0x10, 0x00, 0x00, 0x00, 0x08, 0x00, 0x00, 0x00,
    0x14, 0x00, 0x00, 0x00, 0x30, 0x00, 0x00, 0x00, 0x02, 0x00, 0x00, 0x00,
    0x03, 0x00, 0x00, 0x00, 0x10, 0x00, 0x00, 0x00, 0x19, 0x00, 0x00, 0x00,
    0x73, 0x65, 0x71, 0x75, 0x65, 0x6e, 0x74, 0x69, 0x61, 0x6c, 0x2f, 0x64,
    0x65, 0x6e, 0x73, 0x65, 0x5f, 0x31, 0x2f, 0x4d, 0x61, 0x74, 0x4d, 0x75,
    0x6c, 0x00, 0x00, 0x00, 0x84, 0xe0, 0xff, 0xff, 0x8e, 0xe1, 0xff, 0xff,
    0x04, 0x00, 0x00, 0x00, 0x00, 0x1c, 0x00, 0x00, 0xfe, 0xc7, 0x9b, 0x3d,
    0x23, 0x76, 0xc6, 0xbe, 0x87, 0xed, 0x2c, 0x3e, 0x97, 0x5d, 0x94, 0x3e,
    0xf8, 0x47, 0x9f, 0x3e, 0xb9, 0x4c, 0x03, 0xbf, 0x3d, 0x9c, 0x10, 0xbe,
    0xfd, 0xaf, 0x82, 0xbe, 0xe3, 0x19, 0x55, 0x3b, 0xba, 0x60, 0xcc, 0xbe,
    0xd7, 0xeb, 0x38, 0xbd, 0xe0, 0xf7, 0x72, 0x3d, 0x44, 0x2a, 0xd7, 0xbd,
    0x24, 0x08, 0x8a, 0x3e, 0x61, 0x23, 0x2d, 0x3e, 0x42, 0x7f, 0x63, 0x3d,
    0x98, 0xe4, 0x82, 0xbd, 0xef, 0xe7, 0xcc, 0x3d, 0xb5, 0x30, 0x82, 0x3e,
    0x60, 0xeb, 0xfe, 0xbc, 0x8f, 0xb1, 0x80, 0x3e, 0xca, 0x9b, 0xcd, 0xbe,
    0x0c, 0x8b, 0xb4, 0x3e, 0x04, 0xc2, 0xe0, 0xbe, 0xe6, 0x9d, 0xff, 0xbd,
    0xef, 0xdf, 0xe2, 0xbd, 0x5c, 0x79, 0xe6, 0x3c, 0x16, 0x15, 0x45, 0xbe,
    0x78, 0x6a, 0x02, 0xbe, 0x6d, 0xe3, 0xab, 0x3d, 0x4a, 0x3c, 0xf9, 0x3d,
    0xb3, 0x60, 0x4e, 0x3c, 0x33, 0x24, 0x9e, 0xbe, 0x04, 0x25, 0x21, 0x3c,
    0x6e, 0xa6, 0x7d, 0x3c, 0x12, 0xf6, 0x78, 0xbe, 0xf9, 0xfb, 0xd2, 0x3e,
    0x86, 0x2c, 0xe1, 0xbd, 0x5f, 0x67, 0x00, 0x3f, 0x36, 0x4e, 0x8e, 0xbe,
    0x7c, 0xf5, 0x8e, 0x3e, 0x25, 0xd5, 0xd6, 0xbe, 0x52, 0xda, 0xc5, 0xbd,
    0xf8, 0x5c, 0x33, 0xbe, 0xf7, 0x9d, 0x9c, 0xbd, 0x9b, 0x68, 0x2b, 0x3e,
    0xe4, 0xb9, 0xd0, 0x3e, 0x67, 0x8f, 0x6d, 0x3e, 0x1b, 0x90, 0x9d, 0xbe,
    0x36, 0xdb, 0x1e, 0xbd, 0x5f, 0x72, 0x6c, 0x3e, 0x77, 0x2c, 0xba, 0x3e,
    0x22, 0x03, 0xbe, 0x3c, 0xea, 0x2b, 0x3e, 0xbe, 0x32, 0xa4, 0x77, 0x3e,
    0xe9, 0xaf, 0xdf, 0xbe, 0xfc, 0x1b, 0xc1, 0x3c, 0xb9, 0x51, 0x81, 0xbe,
    0xfc, 0xee, 0xf1, 0xbc, 0xe3, 0x49, 0xbe, 0xbd, 0xba, 0x0b, 0xdb, 0x3c,
    0x82, 0xb6, 0xc5, 0x3e, 0x3c, 0x46, 0x6e, 0x3e, 0x74, 0xe4, 0x9d, 0x3e,
    0x0d, 0x98, 0xb0, 0x3d, 0xaa, 0x40, 0x10, 0xbe, 0x3f, 0xe4, 0xc8, 0x3e,
    0xe2, 0x02, 0xf0, 0x3d, 0x2d, 0x9b, 0x80, 0x3e, 0x02, 0xbb, 0x86, 0xbe,
    0xb5, 0x9a, 0xdb, 0x3b, 0xa2, 0xc4, 0xcd, 0xbe, 0xcf, 0x77, 0xa9, 0x3d,
    0x00, 0x59, 0xdd, 0xbe, 0x61, 0x43, 0xc5, 0xbb, 0xf6, 0x8c, 0x2f, 0xbd,
    0x1e, 0x26, 0x5c, 0xbd, 0x8b, 0x4d, 0x50, 0x3e, 0x5d, 0x30, 0x2d, 0x3e,
    0x9d, 0x80, 0x01, 0x3e, 0x56, 0xe3, 0x66, 0xbd, 0xad, 0xd8, 0x4f, 0xbe,
    0x6d, 0xc7, 0x74, 0x3e, 0xe4, 0x44, 0xdf, 0xbd, 0xa8, 0xbf, 0x84, 0x3e,
    0x70, 0xc8, 0x8e, 0xbe, 0xe1, 0xd8, 0xb1, 0x3d, 0xcb, 0x23, 0x16, 0xbf,
    0x6f, 0x02, 0x3c, 0x3d, 0x79, 0x82, 0x97, 0xbe, 0x38, 0xf5, 0xa3, 0x3d,
    0xc3, 0x5b, 0xde, 0xbc, 0xc7, 0xf9, 0x9d, 0xbd, 0xe6, 0x12, 0xcd, 0x3e,
    0x04, 0x31, 0x26, 0x3e, 0xb8, 0x36, 0xef, 0xbd, 0x4e, 0x88, 0x12, 0x3f,
    0x72, 0x20, 0x3a, 0xbe, 0x04, 0x42, 0x47, 0x3e, 0x6b, 0x18, 0x80, 0x3e,
    0xbb, 0x66, 0xa3, 0x3d, 0x12, 0x47, 0xc4, 0xbd, 0x46, 0x9c, 0xbf, 0x3d,
    0xec, 0xc0, 0xb5, 0xbd, 0x05, 0xf9, 0x25, 0xbe, 0x68, 0x3b, 0xc5, 0xbd,
    0xbd, 0x3a, 0x8e, 0xbd, 0xad, 0xff, 0x9a, 0xbd, 0xa4, 0xa4, 0x47, 0xbc,
    0x8c, 0x7f, 0x1e, 0x3e, 0xbc, 0x8f, 0x64, 0xbc, 0x9c, 0xb8, 0xfc, 0x3c,
    0xd0, 0xad, 0x0a, 0x3f, 0x28, 0x9d, 0xd3, 0x3e, 0xb8, 0xa7, 0x3d, 0xbe,
    0xfa, 0xa5, 0x90, 0xbe, 0xca, 0xd6, 0xb0, 0xbc, 0xf2, 0xad, 0x0c, 0xbe,
    0xf6, 0x61, 0x13, 0xbd, 0xfd, 0xe2, 0x56, 0xbe, 0x66, 0x4b, 0x87, 0xbe,
    0x2a, 0x0a, 0x70, 0xbe, 0x47, 0x17, 0x2c, 0x3d, 0xe2, 0x91, 0x3a, 0x3c,
    0x28, 0x73, 0xf3, 0xbd, 0x7e, 0xba, 0xf5, 0xbd, 0xf1, 0x75, 0xc9, 0xbd,
    0x18, 0x69, 0x1a, 0xbd, 0x75, 0xeb, 0xfc, 0x3e, 0xbe, 0x91, 0x42, 0x3f,
    0x7d, 0xe2, 0x09, 0x3e, 0x80, 0x4f, 0x4a, 0xbe, 0x03, 0x99, 0x1e, 0x3e,
    0x65, 0xe0, 0x9d, 0xbb, 0xb6, 0xa9, 0x3d, 0xbe, 0x2e, 0x2f, 0x6f, 0xbe,
    0xb9, 0x2b, 0x88, 0xbc, 0x57, 0xab, 0x01, 0xbe, 0x13, 0xf2, 0xc3, 0x3a,
    0x9c, 0xa5, 0x8c, 0xbd, 0x58, 0x64, 0xa1, 0xbb, 0xb3, 0xa1, 0x0b, 0x3e,
    0xc3, 0x7b, 0xb1, 0x3d, 0x6c, 0x40, 0x2f, 0xbe, 0x38, 0xbd, 0x39, 0x3f,
    0xac, 0x6f, 0x49, 0x3f, 0xb8, 0x71, 0x65, 0xbe, 0x50, 0x3a, 0xd3, 0x3d,
    0xd1, 0xe4, 0x88, 0x3d, 0x68, 0xe7, 0xa4, 0xbe, 0x0c, 0x0c, 0x26, 0x3d,
    0xc6, 0xed, 0x39, 0xbe, 0xcd, 0x5d, 0xa6, 0xbe, 0xe2, 0x34, 0x49, 0x3d,
    0xcf, 0x7a, 0x30, 0xbc, 0x0d, 0x07, 0xc6, 0xbd, 0x75, 0x95, 0x5a, 0xbe,
    0x01, 0x10, 0x32, 0xbe, 0x73, 0x67, 0xbd, 0x3c, 0x12, 0xae, 0xa5, 0x3d,
    0x17, 0x5b, 0x17, 0x3f, 0xe8, 0x8e, 0x54, 0x3f, 0xc7, 0x5a, 0x87, 0xbd,
    0x8d, 0x2b, 0x9f, 0xbd, 0x31, 0x90, 0x33, 0xbe, 0x7f, 0x09, 0xa8, 0xbe,
    0xe5, 0x24, 0x1f, 0x3e, 0x44, 0xc2, 0x39, 0x3d, 0x0a, 0x9f, 0xb7, 0xbe,
    0x8e, 0x75, 0x87, 0xbe, 0x7f, 0x6c, 0x2f, 0x3d, 0x04, 0xfe, 0x8c, 0x3d,
    0xd6, 0x6f, 0x84, 0xbe, 0x43, 0x6c, 0x37, 0x3e, 0x8f, 0x3c, 0x3e, 0xbd,
    0x1a, 0x60, 0x49, 0xbe, 0x8c, 0x84, 0x5b, 0x3f, 0x16, 0x3e, 0xdc, 0x3e,
    0x74, 0xd4, 0x50, 0xbe, 0x4a, 0xc8, 0xb7, 0x3c, 0x5f, 0x8f, 0x62, 0xbe,
    0x3c, 0xfd, 0x15, 0x3d, 0xfd, 0x43, 0x95, 0x3c, 0x0c, 0xf9, 0x90, 0x3c,
    0x04, 0x2b, 0x2b, 0xbe, 0xd1, 0x87, 0xbd, 0x3b, 0xf6, 0xb3, 0x9f, 0x3c,
    0x57, 0xbd, 0x8e, 0x3d, 0x78, 0x5a, 0xab, 0xbe, 0xd3, 0xf7, 0x99, 0xbd,
    0x4f, 0xf9, 0x73, 0xbe, 0xa2, 0x4c, 0xda, 0x3d, 0x1d, 0xd0, 0xc0, 0x3e,
    0x53, 0xd7, 0x0d, 0x3f, 0x5e, 0xe2, 0x64, 0x3d, 0xdc, 0x4b, 0xf5, 0x3c,
    0x20, 0x97, 0xfe, 0x3d, 0xad, 0x3c, 0x9b, 0xbc, 0xad, 0xda, 0x6d, 0xbd,
    0x60, 0x5c, 0x3e, 0xbd, 0x84, 0x20, 0x21, 0xbe, 0x8c, 0xdd, 0x03, 0xbd,
    0xd9, 0x63, 0x2b, 0x3c, 0x82, 0x51, 0xa4, 0x3c, 0xcb, 0x93, 0x3b, 0xbe,
    0xf2, 0xeb, 0xee, 0xbd, 0x93, 0x27, 0x6a, 0xbd, 0x74, 0x0e, 0x98, 0xbe,
    0xbb, 0x57, 0x12, 0x3f, 0xc8, 0x06, 0xe8, 0x3e, 0x50, 0x1f, 0x4b, 0xbe,
    0xc4, 0xe9, 0x0d, 0xbd, 0x03, 0xd9, 0x8b, 0xbe, 0x92, 0x43, 0xb6, 0xbd,
    0xda, 0x41, 0x40, 0xbd, 0x9a, 0x22, 0xe5, 0xba, 0x62, 0xb5, 0xf7, 0xbd,
    0x13, 0xea, 0x29, 0xbd, 0xf8, 0xa0, 0x5e, 0x3d, 0x35, 0xf6, 0xa4, 0xbe,
    0xd5, 0x5c, 0x7a, 0xbd, 0x33, 0x9a, 0x89, 0x3d, 0xba, 0x1e, 0x7e, 0xbe,
    0xae, 0x89, 0xa2, 0xbe, 0xa1, 0xe1, 0x92, 0xbe, 0x32, 0x29, 0x88, 0xbe,
    0x2f, 0x88, 0x99, 0xbe, 0x86, 0xca, 0x70, 0x3e, 0x68, 0xd9, 0xe3, 0xbe,
    0x95, 0x05, 0xf8, 0x3d, 0xd9, 0x52, 0x2e, 0x3e, 0x15, 0x1b, 0x0f, 0xbc,
    0x85, 0x34, 0xa3, 0x3c, 0x58, 0xc6, 0x29, 0x3e, 0xcb, 0x39, 0x87, 0xbe,
    0xa5, 0x4e, 0xb9, 0x3a, 0x76, 0x71, 0x83, 0x3c, 0xa5, 0x04, 0xf9, 0xbd,
    0xbf, 0xa0, 0x3b, 0xbe, 0x12, 0x87, 0x6a, 0x3e, 0xbb, 0xde, 0xf0, 0xbd,
    0x85, 0xe4, 0xd1, 0xbb, 0x42, 0xa3, 0x19, 0xbe, 0x31, 0x3a, 0x4a, 0x3e,
    0xc0, 0x6a, 0x4f, 0xbe, 0x00, 0x82, 0x6e, 0xbd, 0x88, 0xd4, 0x1c, 0x3c,
    0x0b, 0x7d, 0xdb, 0xba, 0x23, 0x1a, 0x27, 0xbd, 0xf3, 0x94, 0xd0, 0x3c,
    0xf0, 0xbd, 0xbc, 0xbd, 0x97, 0xeb, 0x93, 0x3d, 0x62, 0xbc, 0x00, 0xbd,
    0xe5, 0xe9, 0x26, 0xbe, 0x5f, 0x5a, 0x1e, 0x3e, 0x1a, 0x52, 0x3e, 0x3e,
    0x8e, 0x56, 0x45, 0x3e, 0x8a, 0xb3, 0x0c, 0x3e, 0xad, 0x28, 0x35, 0x3e,
    0x86, 0x70, 0x5b, 0x3e, 0x3d, 0x43, 0x91, 0xbd, 0x11, 0x0b, 0xf5, 0xbe,
    0xb0, 0x9b, 0xaf, 0xbe, 0xcf, 0x76, 0xde, 0xbe, 0xc7, 0x90, 0xe1, 0xbe,
    0xdd, 0x4a, 0xda, 0xbe, 0x76, 0x35, 0x07, 0x3d, 0x8f, 0x6c, 0xcd, 0xbd,
    0x48, 0xb8, 0xc2, 0xbd, 0x2f, 0x95, 0x48, 0xbd, 0x1f, 0x3c, 0xe9, 0xbd,
    0xcf, 0xd5, 0x35, 0xbd, 0x1f, 0xb7, 0x14, 0x3e, 0xda, 0x98, 0xe8, 0xbd,
    0x45, 0x17, 0x05, 0xbe, 0x5c, 0x80, 0x30, 0xbe, 0xfb, 0x65, 0xb8, 0x3b,
    0xb5, 0x85, 0x73, 0xbe, 0xdd, 0x57, 0x0a, 0xbf, 0xbf, 0xe4, 0xd7, 0xbe,
    0x6c, 0x31, 0x12, 0xbd, 0xb7, 0x72, 0x02, 0xbd, 0x36, 0x94, 0x42, 0x3d,
    0x18, 0xb4, 0x46, 0xbe, 0x93, 0xcc, 0x27, 0xbe, 0xe6, 0xf8, 0xc8, 0xbe,
    0xcc, 0xf8, 0x7a, 0xbd, 0x0f, 0x6e, 0xd8, 0xbe, 0x07, 0x77, 0x94, 0x3d,
    0x41, 0x25, 0x1a, 0xbe, 0x4d, 0xff, 0xf8, 0xbc, 0xa6, 0xfb, 0x10, 0xbe,
    0x43, 0x2b, 0x35, 0xbe, 0x43, 0x9d, 0x9a, 0xbe, 0x10, 0xbc, 0xc5, 0xbd,
    0xe4, 0xdd, 0x13, 0xbe, 0xa0, 0x5b, 0x34, 0xbe, 0x98, 0x3e, 0x4c, 0xbe,
    0xe3, 0x4f, 0x48, 0xbd, 0x33, 0xc2, 0x25, 0xbe, 0x17, 0x6e, 0x81, 0xbd,
    0x9b, 0x1d, 0xb0, 0xbe, 0x9c, 0x08, 0x85, 0x3d, 0xa3, 0x5c, 0xb5, 0xbe,
    0xea, 0xcf, 0x49, 0xbe, 0xec, 0xa0, 0x88, 0x3d, 0x19, 0x1a, 0x94, 0xbe,
    0x8d, 0x36, 0x54, 0xbd, 0x82, 0x45, 0x16, 0xbc, 0x98, 0x37, 0xa0, 0xbe,
    0x87, 0xa9, 0xc1, 0x3d, 0x5b, 0xc3, 0x83, 0xbe, 0x67, 0x5b, 0x89, 0xbe,
    0x7e, 0x8d, 0x4f, 0xbc, 0xbb, 0x7f, 0xaa, 0xbd, 0xaf, 0x0e, 0x7d, 0xbd,
    0xae, 0x88, 0xf6, 0xbc, 0xda, 0xb0, 0xa7, 0xbe, 0xc2, 0x5c, 0xcf, 0xbd,
    0x19, 0xa9, 0x0a, 0xbf, 0x75, 0xe7, 0xef, 0xbc, 0xe4, 0x71, 0x4a, 0xbe,
    0x54, 0x49, 0x56, 0xbd, 0xeb, 0x78, 0x39, 0xbd, 0x8b, 0xa6, 0x90, 0xbc,
    0x1f, 0xcf, 0x1d, 0xbe, 0x68, 0x79, 0xf6, 0xbd, 0xec, 0xc7, 0x9f, 0xbe,
    0x90, 0x83, 0xa2, 0x3d, 0x47, 0x36, 0xf3, 0x3d, 0x54, 0x0f, 0x8d, 0xbd,
    0xd6, 0x48, 0x9a, 0xbd, 0x7a, 0xe7, 0xe6, 0xbd, 0x59, 0xe9, 0x54, 0xbb,
    0xb7, 0xe6, 0x43, 0xbd, 0xf1, 0x62, 0x33, 0x3c, 0x89, 0x02, 0xd4, 0x3e,
    0x67, 0x6f, 0x4f, 0xbe, 0x65, 0x24, 0x50, 0xbd, 0x3e, 0x39, 0x27, 0x3e,
    0x41, 0x85, 0xbc, 0x3d, 0xf6, 0x29, 0x5d, 0xbe, 0x59, 0xaa, 0x85, 0xbc,
    0xd7, 0x75, 0x10, 0x3d, 0x39, 0x83, 0x24, 0xbe, 0x15, 0x5a, 0x4c, 0xbe,
    0xa5, 0x44, 0x85, 0x3c, 0xc0, 0xca, 0xcf, 0x3c, 0x8a, 0xfe, 0x08, 0xbe,
    0x93, 0x8e, 0x11, 0xbe, 0x74, 0x92, 0xb4, 0xbd, 0x88, 0xfe, 0x34, 0xbd,
    0xa6, 0x82, 0x9e, 0x3f, 0xbb, 0x08, 0x8a, 0x3e, 0x04, 0x9b, 0x84, 0xbd,
    0x5d, 0xd2, 0x48, 0xbe, 0xfb, 0x7e, 0x34, 0x3d, 0x40, 0x31, 0x2d, 0xbe,
    0xde, 0x8f, 0x1d, 0x3d, 0x0d, 0x76, 0xb4, 0xbd, 0x11, 0x9d, 0x47, 0x3c,
    0x15, 0xdb, 0x1b, 0xbe, 0x49, 0xd6, 0x62, 0xbe, 0x25, 0x51, 0x8c, 0xbd,
    0x16, 0x30, 0x89, 0xbe, 0xda, 0xb9, 0x65, 0xbc, 0xf8, 0x45, 0x4c, 0xbe,
    0xfa, 0x2c, 0x6c, 0x3c, 0xf7, 0x86, 0x1d, 0x3e, 0xf2, 0x33, 0xcf, 0xbc,
    0x6d, 0xf9, 0x79, 0xbe, 0x81, 0x30, 0x24, 0x3e, 0x57, 0x32, 0x7c, 0xbe,
    0xb8, 0x39, 0x0e, 0xbd, 0x9a, 0x34, 0x3b, 0x3d, 0xc8, 0xe6, 0x00, 0x3d,
    0xc2, 0x65, 0x56, 0xbe, 0x17, 0x9a, 0x3f, 0xbe, 0x2b, 0xc6, 0x32, 0xbe,
    0xf8, 0x99, 0x69, 0x3d, 0xfb, 0x11, 0x9c, 0xbd, 0xbd, 0xa0, 0xea, 0x3d,
    0x41, 0x36, 0x2e, 0xbe, 0xf7, 0x47, 0x22, 0xbe, 0xed, 0x46, 0x06, 0xbe,
    0x04, 0x11, 0x0c, 0x3e, 0x0c, 0xc5, 0xd1, 0xbd, 0xae, 0xa0, 0xff, 0xbd,
    0xfb, 0x24, 0x16, 0xbe, 0xf7, 0x47, 0xca, 0xbd, 0x4c, 0xe4, 0x7e, 0xbd,
    0x9e, 0x58, 0x58, 0xbe, 0x6b, 0x5f, 0x9f, 0xbe, 0xd1, 0x10, 0xb4, 0x3d,
    0x0a, 0x34, 0x71, 0x3d, 0xc2, 0x7a, 0x7b, 0xbe, 0xf3, 0x7a, 0x8a, 0xbe,
    0xcc, 0x09, 0x74, 0xbe, 0xf3, 0xe1, 0xac, 0xbd, 0x76, 0x73, 0x15, 0xbe,
    0x6d, 0xd6, 0x7d, 0x3f, 0x54, 0x1b, 0xa4, 0x3d, 0x8a, 0x3a, 0x4d, 0xbe,
    0x5e, 0xbc, 0xd4, 0xbd, 0x1c, 0x3a, 0xee, 0xbd, 0xaa, 0x85, 0x82, 0xbe,
    0x60, 0x0e, 0xda, 0xbd, 0x1c, 0x7a, 0xc3, 0x3e, 0xad, 0x25, 0x88, 0xbe,
    0x17, 0x6e, 0x58, 0xbe, 0x8f, 0x4c, 0x99, 0xbc, 0x22, 0xdc, 0xa4, 0xbd,
    0x46, 0xf0, 0x4c, 0xbe, 0xdb, 0x37, 0x17, 0xbe, 0x31, 0x8f, 0x25, 0xbe,
    0x3c, 0x87, 0x97, 0x3d, 0x69, 0x65, 0x89, 0x3f, 0xcf, 0xbf, 0x89, 0x3e,
    0x12, 0x0d, 0xa2, 0x3d, 0x95, 0x94, 0xf2, 0xbd, 0xed, 0x04, 0x13, 0x3e,
    0x68, 0xc4, 0x2c, 0xbe, 0x11, 0x8d, 0x34, 0xbe, 0x86, 0xd8, 0x85, 0x3e,
    0x92, 0xab, 0x86, 0xbe, 0x7c, 0x57, 0x1a, 0x3e, 0x96, 0x90, 0xa5, 0xbc,
    0x08, 0x7e, 0x69, 0xbe, 0x7e, 0x7f, 0xb2, 0xbe, 0x69, 0xdc, 0xa2, 0xba,
    0x70, 0xa5, 0x87, 0xbe, 0x97, 0x54, 0x1a, 0xbe, 0xbc, 0x96, 0x9d, 0x3d,
    0xcc, 0x9c, 0xaf, 0xbb, 0x8e, 0x75, 0x65, 0x3d, 0x0f, 0xbb, 0x32, 0xbe,
    0x91, 0x28, 0xd6, 0xbd, 0x5a, 0x69, 0x7a, 0xbd, 0x3f, 0x67, 0x31, 0xbe,
    0x39, 0xcc, 0xfb, 0xbd, 0x3b, 0x6e, 0xd6, 0x3b, 0x50, 0xd1, 0x7a, 0xbd,
    0x9d, 0x8a, 0x95, 0xbd, 0x4b, 0x01, 0x17, 0xbe, 0x9c, 0xfb, 0x30, 0xbe,
    0x75, 0xce, 0x94, 0xbe, 0x58, 0xc7, 0x71, 0xbe, 0x71, 0x19, 0xb9, 0xbe,
    0x5c, 0x7a, 0x21, 0x3e, 0x59, 0xe6, 0x89, 0xbe, 0x3a, 0xed, 0x39, 0xbd,
    0x19, 0xfe, 0x1b, 0x3e, 0xdd, 0x43, 0x99, 0x3e, 0xcc, 0x67, 0x22, 0xbf,
    0x38, 0xff, 0x1b, 0xbe, 0x02, 0x56, 0xae, 0xbe, 0xcf, 0x0f, 0x85, 0xbc,
    0x99, 0x88, 0xc9, 0xbe, 0xc5, 0xb2, 0xe4, 0x3c, 0x05, 0x43, 0x0f, 0xbd,
    0xbd, 0x92, 0xb6, 0xbc, 0x58, 0x00, 0x06, 0x3f, 0x5c, 0xe7, 0x72, 0x3e,
    0xf3, 0xa0, 0xc7, 0xbd, 0x36, 0x23, 0x24, 0x3e, 0x8b, 0x63, 0x3b, 0x3f,
    0x83, 0x03, 0x63, 0x3e, 0xc5, 0x98, 0xb0, 0x3d, 0x72, 0x5e, 0x73, 0x3e,
    0xab, 0xd1, 0x85, 0xbe, 0x48, 0x68, 0x00, 0x3d, 0x48, 0x05, 0xd2, 0xbe,
    0x89, 0x33, 0xf5, 0xbd, 0x83, 0x0c, 0xd9, 0x3d, 0x69, 0x1e, 0x68, 0x3d,
    0xaa, 0x4c, 0x48, 0xbe, 0xbb, 0x5d, 0x22, 0xbd, 0x14, 0x65, 0xb4, 0x3e,
    0xfc, 0x04, 0x0e, 0x3e, 0x23, 0x69, 0xb9, 0xbd, 0xf7, 0xc8, 0x88, 0x3d,
    0x17, 0x2d, 0x36, 0x3f, 0xc7, 0xc6, 0xe8, 0xbd, 0x81, 0x83, 0x09, 0xbe,
    0x4d, 0xc8, 0x27, 0x3e, 0x5b, 0x6b, 0xb8, 0x3c, 0x4b, 0x33, 0x67, 0x3e,
    0xe2, 0x45, 0xa0, 0xbe, 0x70, 0x03, 0x22, 0xbb, 0xe6, 0x7e, 0x5b, 0xbe,
    0x37, 0x39, 0xb1, 0xbd, 0x28, 0x33, 0x30, 0xbe, 0x84, 0x0b, 0x2d, 0x3b,
    0x37, 0x99, 0x98, 0x3e, 0x02, 0x17, 0xa7, 0x3e, 0x90, 0x56, 0xa5, 0x3d,
    0xbe, 0x79, 0x3f, 0xbe, 0x87, 0xe7, 0x1e, 0x3f, 0xe0, 0x05, 0x5e, 0x3e,
    0xc8, 0xc4, 0x5b, 0x3e, 0xec, 0x0d, 0x8d, 0xbc, 0x50, 0x8c, 0xaf, 0xbd,
    0x72, 0xb5, 0x2b, 0x3e, 0xc9, 0xaf, 0xc4, 0xbe, 0x27, 0x63, 0x51, 0xbe,
    0xa0, 0x2e, 0xdd, 0xbe, 0xf7, 0x24, 0x24, 0xbe, 0xac, 0xec, 0xf1, 0xbb,
    0xcf, 0xd7, 0xbf, 0xbc, 0xdb, 0xf5, 0x9f, 0x3e, 0x24, 0xd8, 0x63, 0x3e,
    0xbd, 0x9e, 0x0c, 0x3e, 0xc5, 0x29, 0x17, 0x3f, 0x10, 0x76, 0xf3, 0x3e,
    0x51, 0xb4, 0x7b, 0x3e, 0x27, 0xe7, 0xba, 0x3d, 0x57, 0xf6, 0x88, 0x3e,
    0x42, 0x8d, 0xa0, 0xbe, 0xd4, 0xa5, 0x05, 0x3e, 0xeb, 0xb0, 0xa9, 0xbe,
    0x14, 0xee, 0x38, 0xbd, 0x0e, 0x7c, 0x1f, 0xbf, 0x7e, 0xb6, 0x9b, 0xbd,
    0x2e, 0x8b, 0xe7, 0x3c, 0xca, 0x36, 0xd5, 0xbc, 0x87, 0xa6, 0x75, 0x3e,
    0x28, 0x72, 0x4d, 0x3e, 0xa1, 0xd0, 0xcb, 0x3d, 0x6b, 0xdf, 0x10, 0x3e,
    0xe2, 0x4a, 0x15, 0x3f, 0xbe, 0xd8, 0x8e, 0x3e, 0x58, 0x1a, 0xa5, 0xbd,
    0xd9, 0x8d, 0x92, 0x3e, 0xa5, 0x6c, 0x36, 0xbe, 0xdc, 0xb3, 0xd6, 0x3d,
    0xa7, 0x3b, 0x8d, 0xbe, 0xde, 0x6e, 0xc0, 0x3d, 0xb1, 0xaa, 0x12, 0xbf,
    0x72, 0xb6, 0x12, 0xbd, 0x4a, 0x6d, 0xbf, 0x3d, 0xe0, 0xf5, 0xe1, 0xbc,
    0xc1, 0xf2, 0x9c, 0x3e, 0x79, 0x24, 0x3d, 0x3d, 0x83, 0xa9, 0xb8, 0xbe,
    0xaf, 0x4b, 0x3c, 0x3f, 0x34, 0xc7, 0xa2, 0xbe, 0x93, 0x29, 0x58, 0x3e,
    0xb1, 0x8f, 0x02, 0x3e, 0xbc, 0x5f, 0x77, 0x3e, 0x27, 0xfe, 0x86, 0xbe,
    0x1d, 0x2f, 0x63, 0x3e, 0xe5, 0x7e, 0x38, 0xbe, 0x0e, 0xc7, 0x5c, 0x3e,
    0x4c, 0xe9, 0x69, 0xbe, 0x62, 0x3f, 0x54, 0xbd, 0xb5, 0x79, 0x87, 0x3c,
    0x66, 0xd7, 0x25, 0xbb, 0xb4, 0xd2, 0xc1, 0x3d, 0x65, 0x74, 0x15, 0x3c,
    0xdd, 0x4a, 0x90, 0xbd, 0x4c, 0xfa, 0x6c, 0xbe, 0x4f, 0x60, 0xa6, 0xbd,
    0xc5, 0xd7, 0x25, 0xbf, 0xae, 0xd3, 0x0a, 0xbf, 0x1c, 0xc3, 0xd9, 0xbd,
    0xe5, 0x7c, 0x41, 0xbd, 0x66, 0x95, 0x64, 0xbe, 0x52, 0x74, 0x1a, 0xbd,
    0xb2, 0x8d, 0x6c, 0xbe, 0x9f, 0x70, 0x15, 0x3d, 0x1a, 0x64, 0x01, 0xbf,
    0x01, 0xa6, 0x01, 0xbf, 0x00, 0xaf, 0xe4, 0xbe, 0x42, 0x89, 0x4e, 0xbe,
    0xbe, 0xae, 0x69, 0xbe, 0xb1, 0xdf, 0x7b, 0xbe, 0x44, 0x9f, 0x8f, 0xbc,
    0xab, 0x1c, 0xb2, 0x3d, 0x58, 0x1c, 0xa5, 0xbe, 0xcd, 0x93, 0xa5, 0x3d,
    0x49, 0xce, 0x6d, 0xbd, 0xbe, 0xb4, 0x20, 0x3d, 0x16, 0x1e, 0xc1, 0xbe,
    0x00, 0x6b, 0x11, 0xbc, 0x15, 0x16, 0xe7, 0xbc, 0x7e, 0x41, 0x85, 0xbd,
    0x68, 0xe2, 0x09, 0xbf, 0x7c, 0xba, 0x83, 0xbe, 0xea, 0x2b, 0x90, 0xbe,
    0x80, 0x0b, 0x99, 0xbe, 0x10, 0xe0, 0x01, 0xbe, 0x2e, 0x0a, 0x6c, 0xbe,
    0xa3, 0x2b, 0x73, 0xbe, 0xed, 0xec, 0x25, 0xbd, 0xde, 0x35, 0x7a, 0xbe,
    0x17, 0x28, 0xbc, 0xbe, 0x7f, 0x1e, 0xd8, 0xbd, 0x4f, 0xfd, 0xbf, 0x3c,
    0x0c, 0x54, 0x07, 0xbf, 0x8f, 0x63, 0x03, 0x3e, 0x04, 0x5a, 0x92, 0xbe,
    0x8d, 0x71, 0x9f, 0xbe, 0x01, 0xdb, 0x04, 0xbf, 0x51, 0x67, 0xf5, 0xbd,
    0xf8, 0xd0, 0x84, 0xbe, 0x7e, 0xf8, 0x14, 0xbd, 0xb8, 0x31, 0xbd, 0xbe,
    0x5c, 0xe2, 0xca, 0xbd, 0xb5, 0x0a, 0x76, 0x3b, 0x2b, 0x44, 0x94, 0x3d,
    0x20, 0x54, 0x61, 0xbe, 0xb7, 0xfc, 0x43, 0xbe, 0x9e, 0x36, 0xb1, 0xbd,
    0x6d, 0xd3, 0x78, 0xbc, 0x32, 0x0b, 0xc5, 0xbe, 0x83, 0xda, 0xf8, 0xbd,
    0x5b, 0x36, 0x50, 0xbe, 0x56, 0xbe, 0x3c, 0xbe, 0x9b, 0x0a, 0x0a, 0xbe,
    0x2c, 0xdc, 0xd0, 0xbe, 0xb2, 0xb1, 0x9c, 0xbe, 0x3f, 0xd9, 0x42, 0xbd,
    0xef, 0x5a, 0x07, 0xbe, 0x24, 0x8e, 0x88, 0x3d, 0xa7, 0xfb, 0x37, 0xbe,
    0x7f, 0x99, 0x3a, 0xbe, 0x69, 0x42, 0x10, 0xbe, 0x0d, 0x2a, 0x78, 0x3e,
    0xd5, 0x2b, 0x0c, 0xbe, 0xae, 0x6d, 0x4f, 0xbd, 0x00, 0x0c, 0x69, 0x3e,
    0xcd, 0x28, 0x3f, 0xbe, 0xcc, 0x44, 0xab, 0x3d, 0x5c, 0x94, 0x66, 0x3e,
    0xb8, 0x76, 0xdd, 0x3d, 0xc7, 0xba, 0x9e, 0xbe, 0xc8, 0x1d, 0xeb, 0xbd,
    0x14, 0x93, 0x71, 0xbd, 0x6b, 0x2b, 0x84, 0x3e, 0x76, 0xd0, 0x83, 0x3e,
    0x70, 0x05, 0xbc, 0x3d, 0x99, 0x57, 0x75, 0xbd, 0x16, 0x67, 0x1e, 0xbe,
    0xb2, 0x47, 0x59, 0x3e, 0xdd, 0xb7, 0x36, 0xbe, 0xc6, 0x9a, 0xde, 0x3d,
    0xb3, 0xc4, 0x00, 0x3e, 0xf9, 0x56, 0xd3, 0x3c, 0xa7, 0xc5, 0x97, 0x3d,
    0xaa, 0x60, 0x97, 0x3e, 0x99, 0x40, 0xf9, 0x3d, 0x9b, 0x73, 0x86, 0xbd,
    0x73, 0xbd, 0x62, 0x3d, 0x25, 0xac, 0xe3, 0xbd, 0x77, 0x26, 0x2f, 0x3d,
    0x9b, 0xc5, 0x4d, 0x3e, 0x8b, 0x35, 0x94, 0xbe, 0x93, 0x44, 0x00, 0xbe,
    0x62, 0x49, 0xb7, 0xbd, 0xc0, 0x30, 0x60, 0xba, 0xd2, 0x9e, 0x1c, 0xbe,
    0x2f, 0x3d, 0x58, 0xbd, 0xa0, 0xf9, 0xa5, 0x3d, 0xf4, 0xe3, 0x88, 0x3c,
    0x96, 0x71, 0x46, 0x3e, 0xe9, 0xa5, 0x84, 0x3e, 0x30, 0xe2, 0xa3, 0x3e,
    0xe9, 0x29, 0x0a, 0x3e, 0x7b, 0x7b, 0x00, 0x3e, 0x61, 0x6b, 0xcf, 0xbd,
    0x2d, 0xec, 0xd1, 0x3d, 0x82, 0xa7, 0xfc, 0xbd, 0xcb, 0xfb, 0x60, 0xbe,
    0x94, 0x8c, 0xd0, 0xbe, 0x68, 0x6e, 0x08, 0x3d, 0xa6, 0x26, 0xd5, 0x3e,
    0x25, 0x25, 0x3d, 0x3c, 0xa7, 0xb6, 0x88, 0x3d, 0x1f, 0x8d, 0xcf, 0x3d,
    0x53, 0x96, 0x26, 0x3c, 0x51, 0xc1, 0xaf, 0xbc, 0x58, 0x3b, 0x17, 0x3c,
    0x60, 0x73, 0xbe, 0xbd, 0x0c, 0xc4, 0xdc, 0xbc, 0x89, 0x75, 0x4e, 0x3d,
    0xd2, 0x16, 0xbe, 0x3d, 0x77, 0x03, 0x16, 0x3e, 0x30, 0x66, 0x24, 0x3e,
    0xf4, 0x90, 0xf6, 0xbe, 0xcf, 0x6d, 0x5a, 0x3e, 0xd6, 0x03, 0x0d, 0x3e,
    0x38, 0x27, 0x6b, 0x3e, 0x73, 0x30, 0xed, 0x3d, 0x1a, 0x2f, 0x84, 0xbd,
    0xeb, 0x27, 0x36, 0xbe, 0xec, 0xb9, 0xdd, 0xbd, 0xae, 0xe8, 0x08, 0xbe,
    0xc3, 0xe4, 0x91, 0xbe, 0x29, 0x9f, 0x13, 0xbe, 0x42, 0x1c, 0x6d, 0xbd,
    0xad, 0x11, 0xef, 0xbc, 0xcf, 0x72, 0x87, 0x3b, 0x53, 0x30, 0x38, 0x3e,
    0x12, 0xd0, 0x18, 0x3e, 0x37, 0x2d, 0x45, 0x3d, 0x69, 0xaf, 0xfe, 0xbd,
    0x93, 0x82, 0xb5, 0x3d, 0xa7, 0xb8, 0xa7, 0x3d, 0x81, 0xe4, 0x91, 0xbd,
    0x64, 0xdc, 0xce, 0xbc, 0xb2, 0x53, 0x68, 0xbd, 0x22, 0x83, 0x8a, 0xbe,
    0x01, 0x39, 0x3e, 0xbe, 0xfa, 0xb9, 0x46, 0xbe, 0x49, 0xbe, 0xc0, 0xbd,
    0x1f, 0x73, 0x7c, 0xbe, 0xec, 0x6e, 0x51, 0xbd, 0x8e, 0x3a, 0x54, 0x3c,
    0xf7, 0x96, 0x37, 0xbd, 0x72, 0xd9, 0x67, 0xbd, 0x11, 0x87, 0x24, 0xbe,
    0x24, 0x01, 0x27, 0xbe, 0xf3, 0xe7, 0x44, 0xbd, 0xb7, 0x13, 0x0f, 0xbe,
    0xf7, 0xdd, 0xe6, 0x3c, 0xd9, 0x94, 0x46, 0xbd, 0x34, 0x1c, 0x22, 0xbc,
    0x90, 0x57, 0xa7, 0xbe, 0xa4, 0xa6, 0x88, 0xbd, 0xa5, 0x92, 0x1c, 0xbe,
    0xa5, 0xea, 0x21, 0x3d, 0xd4, 0x1d, 0x4f, 0xbe, 0x9a, 0x47, 0x64, 0xbd,
    0xf8, 0xc5, 0x1d, 0x3d, 0x4d, 0xd7, 0x12, 0xbd, 0x69, 0xec, 0xab, 0x3c,
    0x22, 0x87, 0xc8, 0x3d, 0xff, 0xd0, 0xe8, 0xbc, 0xd6, 0xb9, 0x19, 0xbd,
    0xe3, 0x33, 0x73, 0xbb, 0x5a, 0x4b, 0x25, 0x3d, 0x0f, 0x4b, 0xaa, 0xbd,
    0x3f, 0x00, 0x4b, 0x3e, 0x2a, 0x21, 0x8a, 0xbe, 0x01, 0xce, 0xfc, 0x3b,
    0xdc, 0x0a, 0x06, 0x3e, 0xfd, 0x2e, 0x62, 0xbc, 0xc5, 0x5a, 0x0e, 0xbe,
    0x62, 0xe2, 0xac, 0xbc, 0xd2, 0x61, 0x94, 0xbc, 0xfb, 0x31, 0x1f, 0x3e,
    0x17, 0x8e, 0xc0, 0x3d, 0xcf, 0x89, 0xab, 0xbe, 0x8c, 0xe5, 0xa5, 0xbe,
    0xaf, 0x2a, 0xa0, 0x3c, 0x8c, 0x51, 0x00, 0x3d, 0xa3, 0x09, 0xa1, 0x3c,
    0xe7, 0x35, 0x4e, 0x3d, 0x30, 0x44, 0xb7, 0x3d, 0x9d, 0xb3, 0x57, 0xbd,
    0xf5, 0x29, 0x26, 0x3e, 0x0d, 0x9d, 0x37, 0x3e, 0x65, 0xeb, 0x65, 0x3d,
    0x4a, 0x86, 0xbc, 0xbc, 0xbc, 0xff, 0x1a, 0xbc, 0xaa, 0x64, 0x30, 0x3d,
    0xe8, 0x6b, 0xd0, 0x3d, 0x7a, 0x11, 0x88, 0x3d, 0x13, 0xe8, 0x53, 0xbe,
    0x13, 0x29, 0x24, 0xbe, 0x8b, 0x29, 0xd3, 0x3c, 0x69, 0xc0, 0x0e, 0x3e,
    0x0c, 0x96, 0x42, 0x3d, 0x24, 0xcf, 0x83, 0xbb, 0x71, 0x31, 0xa7, 0x3d,
    0x35, 0xb9, 0x3a, 0x3d, 0x50, 0x97, 0x58, 0x3d, 0x8e, 0x3a, 0x3d, 0x3d,
    0x35, 0x59, 0x67, 0x3d, 0xe2, 0x27, 0x41, 0x3d, 0xde, 0x45, 0x90, 0x3c,
    0x73, 0xbb, 0xca, 0x3c, 0x55, 0xdf, 0x16, 0x3c, 0x24, 0x31, 0x5d, 0xbb,
    0xfc, 0x19, 0xc4, 0x3d, 0x86, 0xd9, 0x94, 0xbe, 0x78, 0x44, 0x4e, 0x3e,
    0x70, 0x60, 0xd0, 0xbd, 0xfa, 0x89, 0x63, 0x3e, 0x94, 0xef, 0x16, 0xbe,
    0x71, 0x1a, 0x18, 0xbe, 0x59, 0x95, 0x4a, 0xbe, 0x41, 0x21, 0x94, 0xbc,
    0x93, 0x64, 0x58, 0xbe, 0x92, 0x0c, 0x70, 0x3e, 0x7a, 0xe1, 0x4e, 0x3c,
    0x79, 0x90, 0x0a, 0xbe, 0xb0, 0x75, 0x81, 0x3d, 0x9c, 0x4f, 0x38, 0x3e,
    0x15, 0x26, 0x2d, 0xbe, 0x83, 0xea, 0xd9, 0x3e, 0x6d, 0x41, 0x59, 0x3f,
    0x7a, 0x6e, 0x26, 0x3d, 0x7c, 0x6a, 0x14, 0x3e, 0xec, 0x97, 0x0c, 0x3e,
    0xbd, 0xdc, 0xc1, 0xbe, 0xad, 0x1c, 0x6d, 0x3e, 0x08, 0xdf, 0xae, 0xbe,
    0xda, 0x0b, 0xe1, 0x3c, 0xc8, 0x3c, 0xa9, 0x3c, 0xb6, 0xaa, 0x36, 0x3d,
    0x93, 0x5e, 0xa5, 0xbe, 0x14, 0x12, 0x0b, 0xbe, 0x9d, 0xba, 0x25, 0x3e,
    0x71, 0xfb, 0x19, 0x3e, 0xe8, 0xd0, 0x62, 0x3d, 0x09, 0xcf, 0x0a, 0x3f,
    0x5e, 0x3f, 0x53, 0x3f, 0x18, 0xd5, 0x17, 0xbd, 0xaf, 0x49, 0x02, 0x3e,
    0x43, 0x59, 0x4a, 0x3e, 0x89, 0xfa, 0xf7, 0xbd, 0xd5, 0x73, 0xa2, 0x3e,
    0xde, 0xf0, 0x01, 0xbd, 0x0f, 0xed, 0x38, 0x3e, 0xc1, 0x3e, 0x21, 0xbe,
    0xad, 0xdb, 0x22, 0x3d, 0xdd, 0x86, 0x6a, 0x3d, 0x24, 0xd1, 0x6f, 0xbd,
    0x21, 0x55, 0xd8, 0x3d, 0xc8, 0x31, 0xf1, 0x3d, 0x0c, 0x6d, 0x1d, 0x3e,
    0x54, 0xfc, 0x9d, 0x3f, 0xa5, 0x3d, 0x26, 0x3f, 0x5e, 0x57, 0x8a, 0x3e,
    0x3e, 0x20, 0xa9, 0x3d, 0xd4, 0xbe, 0x33, 0x3c, 0xb0, 0x8f, 0xcd, 0xbe,
    0x23, 0x3d, 0xfd, 0x3e, 0xff, 0x27, 0x50, 0xbe, 0xed, 0xe0, 0x60, 0x3c,
    0x48, 0x1d, 0x11, 0xbe, 0x0d, 0xf5, 0xe7, 0xbd, 0x18, 0x5e, 0x22, 0x3e,
    0x63, 0x95, 0x17, 0x3e, 0x4a, 0x5f, 0x88, 0x3e, 0x83, 0x8f, 0x97, 0x3d,
    0xcf, 0xdf, 0x66, 0x3e, 0x2f, 0x77, 0x99, 0x3f, 0x7a, 0xa2, 0x28, 0x3f,
    0xd8, 0xb5, 0xea, 0x3e, 0xcd, 0x97, 0x7d, 0x3e, 0x0d, 0xda, 0x76, 0x3e,
    0x6e, 0xd5, 0x45, 0xbe, 0x62, 0x11, 0xd3, 0x3c, 0xf4, 0x78, 0xa4, 0xbe,
    0xa9, 0x27, 0x61, 0xbe, 0xa0, 0xb7, 0xa7, 0xbd, 0xa8, 0x1e, 0xa9, 0xbe,
    0x88, 0x2d, 0xc0, 0x3d, 0xfa, 0x5c, 0x01, 0xbe, 0xe5, 0xa5, 0xb0, 0x3e,
    0xbd, 0x93, 0x82, 0x3e, 0x82, 0x29, 0x5d, 0xbd, 0x42, 0x11, 0x7b, 0x3f,
    0xb5, 0x97, 0x44, 0x3f, 0x0f, 0x9f, 0xfe, 0x3c, 0xac, 0x84, 0x44, 0x3e,
    0x32, 0x6c, 0x98, 0x3e, 0x55, 0x5c, 0x70, 0xbe, 0xaa, 0xcf, 0x7e, 0x3c,
    0xd6, 0xbd, 0xe5, 0xbd, 0x3f, 0xb4, 0xe2, 0x3d, 0x22, 0x97, 0x9a, 0xbd,
    0xf6, 0x93, 0x93, 0xbe, 0xeb, 0xd4, 0x80, 0xbe, 0x4d, 0xc9, 0xb3, 0xbd,
    0xe8, 0xec, 0x20, 0x3e, 0x3f, 0x4c, 0x6b, 0x3e, 0xd6, 0x0d, 0x5e, 0xbe,
    0x05, 0x38, 0x8c, 0x3e, 0x01, 0x4d, 0xe0, 0x3c, 0x66, 0x6d, 0x6e, 0xbe,
    0xed, 0x6a, 0x69, 0xbd, 0x1a, 0x9f, 0xe4, 0x3b, 0xc0, 0x5c, 0x7a, 0xbe,
    0x84, 0x99, 0x77, 0x3e, 0x62, 0x55, 0xc9, 0xbd, 0x19, 0xe5, 0xe7, 0xbc,
    0xf4, 0xba, 0x97, 0xbd, 0xb5, 0x87, 0x74, 0xbe, 0xf0, 0x4c, 0x58, 0xbe,
    0xd2, 0x47, 0xed, 0xbd, 0x08, 0xb3, 0x92, 0xbd, 0x38, 0x5d, 0x71, 0xbd,
    0xf4, 0xc9, 0xb7, 0xbd, 0xb3, 0xf6, 0x28, 0xbe, 0x4b, 0x8a, 0x3d, 0x3e,
    0x0f, 0x61, 0xd8, 0xbb, 0x64, 0xd8, 0xe6, 0x3d, 0x4b, 0xb3, 0x9f, 0x3d,
    0xbc, 0xb7, 0xe4, 0x3d, 0xa3, 0xe7, 0x09, 0xbe, 0x17, 0x4c, 0x2d, 0xbe,
    0xaf, 0xf3, 0x07, 0xbe, 0x90, 0x90, 0x11, 0xbe, 0xee, 0x32, 0x55, 0x3d,
    0x83, 0x70, 0x4e, 0x3d, 0xea, 0x6a, 0x40, 0xbe, 0xee, 0x59, 0x4d, 0xbe,
    0x3a, 0xbb, 0x45, 0xbc, 0xdd, 0x7e, 0xe6, 0xbd, 0x4b, 0x0a, 0x1f, 0xbe,
    0x0e, 0xc9, 0x3d, 0x3d, 0x86, 0xaf, 0xc6, 0xbd, 0x73, 0xbd, 0xc1, 0x3d,
    0x87, 0x24, 0x4d, 0x3d, 0x53, 0x41, 0x92, 0x3b, 0x73, 0xec, 0x29, 0xbd,
    0x28, 0xd3, 0x9a, 0xbd, 0xae, 0xd4, 0x80, 0xbc, 0x10, 0x95, 0xee, 0xbd,
    0xc9, 0xc5, 0xfa, 0xbd, 0x13, 0x35, 0xb0, 0xbc, 0x46, 0x57, 0x90, 0xbe,
    0x3d, 0x0f, 0x85, 0x3b, 0x2c, 0x59, 0x9c, 0x3d, 0xc8, 0xc7, 0x5b, 0xbe,
    0xc2, 0xbe, 0x18, 0x3e, 0xa8, 0x96, 0x21, 0x3e, 0xbf, 0xa3, 0x09, 0x3d,
    0xeb, 0x82, 0xd7, 0x3d, 0x22, 0x2a, 0x22, 0xbd, 0xfb, 0x6c, 0x0e, 0xbe,
    0xc9, 0xd4, 0x9a, 0xbb, 0xda, 0x18, 0x42, 0x3d, 0xfe, 0x6a, 0x50, 0xbe,
    0xec, 0xd2, 0x42, 0xbe, 0x89, 0x6d, 0x9f, 0xbe, 0xa6, 0x06, 0x81, 0xbd,
    0x89, 0x7e, 0x29, 0xbe, 0x87, 0x4f, 0xd4, 0x3d, 0xca, 0xb3, 0x8d, 0xbd,
    0xee, 0x15, 0xc1, 0xbd, 0xc8, 0x8b, 0x17, 0xbe, 0x11, 0xc1, 0x95, 0xbd,
    0x97, 0x91, 0x12, 0x3e, 0x84, 0x6a, 0x26, 0x3e, 0x8f, 0x98, 0x09, 0x3e,
    0x7e, 0xf3, 0xb8, 0x3b, 0x77, 0xf7, 0xb4, 0xbd, 0xf6, 0xdd, 0x84, 0xbd,
    0x15, 0x09, 0x68, 0xbe, 0xec, 0x9b, 0x79, 0x3d, 0x2f, 0x15, 0x45, 0xbc,
    0xff, 0x38, 0xd3, 0x3c, 0x6e, 0xa3, 0x0e, 0xbe, 0xfb, 0xfe, 0x02, 0x3c,
    0xe3, 0x99, 0x08, 0xbd, 0x18, 0x65, 0x4c, 0xbe, 0x96, 0x2b, 0x0b, 0xbe,
    0x4f, 0xfa, 0x37, 0x3d, 0x31, 0x34, 0x16, 0xbe, 0x54, 0x1d, 0xdb, 0x3d,
    0xcc, 0xc8, 0x19, 0xbe, 0xfb, 0x38, 0xe4, 0xbc, 0xb7, 0x4e, 0xcb, 0xbd,
    0x4d, 0xc6, 0x50, 0xbe, 0xaf, 0xf7, 0x81, 0xbe, 0x4a, 0x57, 0xf7, 0xbc,
    0x2c, 0xcd, 0x37, 0xbe, 0x86, 0xaf, 0xd0, 0xbd, 0xb4, 0x2d, 0x8f, 0xbe,
    0x98, 0x15, 0x15, 0xbe, 0x29, 0x91, 0xd9, 0xbc, 0xc2, 0x58, 0x15, 0xbe,
    0x40, 0x9d, 0x27, 0xbe, 0x7a, 0x2d, 0xcb, 0xbd, 0x75, 0x1c, 0x02, 0x3e,
    0x07, 0x61, 0xf5, 0x3c, 0x5a, 0x0e, 0x39, 0x3c, 0x1d, 0xb3, 0x1f, 0xbe,
    0xc2, 0xf3, 0x4c, 0x3d, 0x5b, 0xc0, 0x76, 0xbe, 0x77, 0x47, 0x45, 0xbd,
    0x78, 0x3c, 0x88, 0xbd, 0xeb, 0xe4, 0x6c, 0xbe, 0x17, 0xe0, 0x48, 0xbe,
    0xf2, 0xdc, 0xac, 0xbd, 0x46, 0xa8, 0xbc, 0x3d, 0xb7, 0x6a, 0xaa, 0x3d,
    0x7e, 0x85, 0xe4, 0x3d, 0x7e, 0xfd, 0x29, 0x3c, 0x2f, 0x68, 0x90, 0xbd,
    0xd3, 0x2d, 0xd6, 0xbd, 0x0a, 0xf9, 0x8f, 0x3d, 0xae, 0xba, 0x0b, 0xbe,
    0x95, 0xfc, 0x0a, 0xbe, 0x88, 0x66, 0xce, 0xbc, 0x5e, 0x17, 0x0a, 0xbe,
    0x0c, 0x98, 0x95, 0xbc, 0x49, 0x9e, 0x12, 0xbc, 0x04, 0x87, 0x42, 0xbe,
    0x91, 0x1d, 0x19, 0x3e, 0xb4, 0x58, 0x91, 0xbe, 0x76, 0xe0, 0xe4, 0x3c,
    0x6d, 0xd2, 0x56, 0xbe, 0x2f, 0xd4, 0x3e, 0xbe, 0xc6, 0x8e, 0x20, 0xbd,
    0x2d, 0xd8, 0x3d, 0xbe, 0x25, 0xd5, 0x13, 0xbd, 0xef, 0xaa, 0x88, 0x3d,
    0x20, 0x9c, 0x44, 0xbe, 0x10, 0x72, 0x8a, 0xbe, 0x6b, 0x80, 0x85, 0xbe,
    0xbf, 0xa9, 0x83, 0xbe, 0xf0, 0x8b, 0x35, 0x3d, 0x7c, 0x72, 0x6a, 0xbe,
    0x7e, 0xd5, 0x23, 0x3d, 0xc7, 0x15, 0xd4, 0xbd, 0x2f, 0xf8, 0xfd, 0xbd,
    0x1e, 0x43, 0x35, 0xbe, 0x1a, 0x7b, 0xfe, 0x3d, 0x5c, 0xa3, 0x07, 0x3d,
    0xe3, 0xe7, 0x5f, 0xbd, 0xde, 0xc4, 0x0f, 0x3e, 0x2c, 0x0a, 0x02, 0xbe,
    0xa2, 0xfb, 0x25, 0x3d, 0x5c, 0x72, 0x05, 0x3e, 0xc6, 0xaa, 0x14, 0x3d,
    0x19, 0x5c, 0x38, 0xbe, 0x69, 0x55, 0x91, 0xbe, 0x50, 0xec, 0x1e, 0x3d,
    0x04, 0x61, 0x24, 0xbe, 0x71, 0x12, 0x91, 0xbe, 0xd0, 0xbb, 0x2a, 0xbc,
    0xcd, 0xa5, 0x94, 0xbd, 0x81, 0x95, 0x13, 0xbd, 0xca, 0xbf, 0xd6, 0x3d,
    0x71, 0xb9, 0x82, 0x3d, 0xcc, 0x07, 0x18, 0x3e, 0x0a, 0xfb, 0x65, 0xbe,
    0xf9, 0x9e, 0xc0, 0xbd, 0xab, 0xe6, 0x3d, 0x3b, 0xee, 0xda, 0x64, 0xbc,
    0x33, 0x12, 0x2a, 0xbe, 0x44, 0xb2, 0x0d, 0x3e, 0xd2, 0xdf, 0x88, 0xbd,
    0x29, 0xde, 0x31, 0xbe, 0xb3, 0xa6, 0x25, 0xbe, 0xb6, 0xf2, 0x2b, 0xbe,
    0xd0, 0xa6, 0xd7, 0xbd, 0x47, 0x4a, 0x73, 0xbe, 0x13, 0x32, 0x56, 0xbd,
    0x0a, 0xc7, 0xed, 0x3d, 0x55, 0x84, 0xa7, 0xbd, 0xdb, 0xa3, 0x49, 0xbe,
    0xad, 0xf6, 0xbb, 0x3c, 0x33, 0xeb, 0x5d, 0xbe, 0x49, 0x29, 0x11, 0xbd,
    0x80, 0xf0, 0xe1, 0x3d, 0xd3, 0xa2, 0xd0, 0xbd, 0xde, 0xfe, 0x58, 0xbe,
    0xdf, 0x7a, 0x8a, 0xbe, 0xa7, 0x82, 0x7c, 0xbe, 0x4e, 0x05, 0xde, 0x3d,
    0xee, 0x1b, 0x6a, 0xbe, 0x6a, 0x83, 0xbf, 0xbd, 0x2b, 0xb6, 0x2f, 0xbe,
    0x6b, 0x47, 0xd7, 0xbc, 0xf3, 0xcf, 0x19, 0xbd, 0x67, 0xb8, 0x5b, 0x3d,
    0x9e, 0x52, 0x1e, 0xbe, 0xde, 0xd4, 0x82, 0x3d, 0xec, 0xeb, 0x29, 0xbe,
    0x38, 0xdd, 0x45, 0xbe, 0xde, 0x34, 0xdc, 0xbd, 0x6c, 0x7b, 0x86, 0xbe,
    0x48, 0x2c, 0xed, 0xbd, 0xe8, 0x90, 0x88, 0x3d, 0x35, 0x7e, 0xe1, 0xbd,
    0x01, 0x24, 0x6f, 0xbe, 0xb9, 0x3a, 0x70, 0xbe, 0x21, 0x4f, 0x62, 0xbe,
    0x30, 0x98, 0x1f, 0xbd, 0x76, 0x9e, 0x01, 0x3e, 0xfa, 0xfb, 0xbf, 0x3b,
    0x7f, 0xf9, 0xb6, 0x3d, 0xeb, 0xed, 0x4a, 0x3c, 0x35, 0x77, 0x0f, 0x3d,
    0xa8, 0xd2, 0xe4, 0xbd, 0x20, 0xd9, 0x54, 0xbe, 0x15, 0x27, 0x21, 0x3e,
    0x49, 0xf1, 0x35, 0xbe, 0x16, 0xc6, 0x76, 0xbe, 0x21, 0xbe, 0x68, 0xbe,
    0xdf, 0x68, 0xd6, 0xba, 0x2d, 0x0f, 0xac, 0x3d, 0xed, 0xdc, 0x6c, 0xbd,
    0x1d, 0x9c, 0x51, 0xbe, 0x89, 0x63, 0xfb, 0x38, 0xc4, 0xea, 0x07, 0xbe,
    0xea, 0x4e, 0x13, 0x3d, 0xcd, 0x66, 0x0f, 0x3c, 0xaf, 0xf8, 0x33, 0x3d,
    0x9a, 0x8f, 0x8c, 0x3d, 0x75, 0xc9, 0x05, 0x3d, 0x8c, 0xdf, 0x32, 0xbe,
    0x86, 0x5b, 0xae, 0x3c, 0x47, 0x3f, 0x73, 0xbd, 0x13, 0xc0, 0x62, 0xbe,
    0x84, 0xc2, 0x8a, 0xbe, 0xdc, 0xb4, 0x81, 0xbe, 0xca, 0x21, 0xfb, 0x3d,
    0x3a, 0x3e, 0x9b, 0xbe, 0xee, 0x2f, 0x00, 0x3e, 0x04, 0x89, 0x48, 0xbe,
    0xe6, 0x11, 0xce, 0x3c, 0xdb, 0xfd, 0x96, 0xbd, 0x9b, 0x05, 0x9d, 0xbd,
    0x11, 0x42, 0x33, 0xbd, 0x14, 0xf5, 0xde, 0x3c, 0xb3, 0x59, 0xee, 0xbd,
    0x11, 0x38, 0x9f, 0x3d, 0x6d, 0x30, 0x50, 0xbe, 0x33, 0x28, 0x0e, 0x3d,
    0x7f, 0xc2, 0x2e, 0xbe, 0x74, 0x3c, 0x6d, 0xbe, 0x5b, 0x76, 0x6e, 0xbe,
    0xf2, 0x97, 0x4a, 0xbe, 0x0a, 0xa8, 0x56, 0xbe, 0x95, 0xfc, 0x61, 0xbd,
    0x56, 0x56, 0xeb, 0xbd, 0x8f, 0x4e, 0xd8, 0xbd, 0xbe, 0x28, 0x25, 0xbd,
    0xa2, 0xb7, 0xed, 0x3d, 0xa4, 0xe8, 0x58, 0xbe, 0x12, 0x97, 0x39, 0xbe,
    0x32, 0xbf, 0xbf, 0xbd, 0x57, 0x25, 0xae, 0x3d, 0x2a, 0x03, 0x20, 0x3d,
    0x2b, 0x2e, 0x73, 0xbe, 0xc3, 0xd1, 0x22, 0xbe, 0x73, 0xb0, 0xac, 0xbd,
    0x38, 0x02, 0x53, 0xbe, 0x7c, 0x0c, 0x37, 0x3d, 0x2e, 0x20, 0x77, 0x3d,
    0x54, 0xb2, 0x92, 0x3c, 0xfe, 0x2b, 0x8d, 0xbe, 0x09, 0x58, 0x7c, 0xbd,
    0x24, 0x16, 0x70, 0xbe, 0xf2, 0x1e, 0x28, 0xbe, 0x9f, 0x8c, 0xc7, 0x3d,
    0xa1, 0xfd, 0x2a, 0xbe, 0x80, 0xab, 0x32, 0xbe, 0x58, 0x95, 0x10, 0xbd,
    0xcb, 0xbd, 0x00, 0xbe, 0xef, 0x71, 0x1c, 0x3e, 0x99, 0x8d, 0x49, 0x3e,
    0xc3, 0x0a, 0xab, 0xbd, 0x38, 0x49, 0xa6, 0xbe, 0xd3, 0x8f, 0x37, 0xbe,
    0xcd, 0xaf, 0xe5, 0xbd, 0x9f, 0x3a, 0xce, 0x3d, 0xb8, 0xdc, 0xb1, 0xbe,
    0xa4, 0x02, 0xa3, 0xbd, 0x9d, 0x1c, 0x18, 0xbe, 0xdb, 0xb4, 0xd8, 0xbd,
    0x9a, 0x1e, 0xf5, 0xbd, 0xfb, 0xe8, 0x4c, 0x3e, 0x37, 0xb6, 0xef, 0x3d,
    0x54, 0x12, 0xcb, 0xbd, 0xee, 0x07, 0x03, 0x3e, 0x32, 0x76, 0x2a, 0xbe,
    0xa6, 0x94, 0xec, 0xbd, 0x0b, 0xd8, 0x8e, 0x3d, 0xee, 0x00, 0x0e, 0xbe,
    0x70, 0xeb, 0xec, 0xbd, 0xf5, 0x81, 0x92, 0xbe, 0x49, 0x37, 0xa1, 0xbd,
    0x93, 0xc4, 0x15, 0xbc, 0x44, 0xe7, 0x8c, 0x3d, 0x03, 0x38, 0x39, 0xbd,
    0xdf, 0xeb, 0x5b, 0xbe, 0xd0, 0x58, 0xa2, 0xbd, 0x4a, 0x8b, 0xca, 0x3d,
    0xf8, 0x67, 0xed, 0xbd, 0x9b, 0xbe, 0x2a, 0x3d, 0xde, 0x5e, 0xac, 0x3c,
    0x27, 0x6e, 0xef, 0xbd, 0xac, 0x2e, 0x65, 0xbb, 0x1b, 0x85, 0xf7, 0xbc,
    0x91, 0x6b, 0xcd, 0xbd, 0x6f, 0x92, 0x70, 0xbe, 0x46, 0x87, 0xd7, 0xbd,
    0x5f, 0xf3, 0x07, 0xbe, 0x55, 0xf4, 0x40, 0xbd, 0xba, 0x6a, 0x26, 0xbe,
    0x5b, 0x93, 0x1b, 0x3d, 0xc8, 0xdd, 0xf9, 0x3c, 0x6f, 0x2d, 0x89, 0x3d,
    0xc4, 0xbb, 0xa8, 0xbc, 0x06, 0x3d, 0x44, 0x3e, 0x92, 0x3d, 0x05, 0xbd,
    0x92, 0xe6, 0x08, 0xba, 0x4f, 0x32, 0x97, 0x3d, 0x89, 0x1d, 0xa4, 0x3d,
    0xd9, 0x5e, 0x21, 0xbe, 0x39, 0xe0, 0x0d, 0xbe, 0xfd, 0xd4, 0x22, 0x3e,
    0x68, 0x6a, 0x86, 0xbe, 0x55, 0xc8, 0x59, 0xbe, 0x17, 0x99, 0xba, 0xbd,
    0x68, 0xb6, 0xfb, 0x3d, 0xd6, 0x80, 0x62, 0xbe, 0xd5, 0x90, 0xbc, 0x3d,
    0xca, 0xff, 0x24, 0xbc, 0xc8, 0x1a, 0x91, 0x3c, 0xf8, 0xd0, 0x46, 0xbd,
    0x5c, 0x6f, 0xd1, 0x3c, 0xdb, 0x17, 0xd3, 0xbd, 0x83, 0xfa, 0x5c, 0xbe,
    0xcf, 0x12, 0x07, 0xbe, 0x4a, 0xff, 0x25, 0xbe, 0x09, 0xe2, 0x9d, 0xbe,
    0xcd, 0x5d, 0x9a, 0xbd, 0xe4, 0x2c, 0x5e, 0xbd, 0x12, 0x0b, 0x5d, 0xbe,
    0x4e, 0xc2, 0x81, 0xbe, 0x67, 0xb8, 0x8a, 0xbe, 0x14, 0x01, 0x45, 0xbe,
    0x56, 0xb7, 0x81, 0xbc, 0x1b, 0xa6, 0x5e, 0xbe, 0x23, 0xb1, 0xb0, 0x3d,
    0xd2, 0xc1, 0x82, 0xbd, 0xef, 0x0d, 0x96, 0xbd, 0x27, 0xcd, 0x33, 0x3e,
    0x22, 0x37, 0x5e, 0xbe, 0x30, 0xda, 0x17, 0x3c, 0xe9, 0xb7, 0x28, 0x3d,
    0xc0, 0xa5, 0x28, 0xbd, 0x40, 0xdd, 0x1f, 0xbe, 0x4c, 0x6d, 0x81, 0xbd,
    0xca, 0xf0, 0x1c, 0xbe, 0x25, 0x1f, 0x27, 0xbe, 0x4e, 0x1c, 0x33, 0xbe,
    0x1d, 0xaf, 0x10, 0xbe, 0x26, 0x0c, 0x03, 0x3d, 0xd3, 0x76, 0xfc, 0xbd,
    0x79, 0xec, 0x45, 0x3c, 0xad, 0x81, 0x47, 0x3d, 0xfc, 0xd9, 0xe0, 0x3d,
    0xde, 0x16, 0xb7, 0x3c, 0x99, 0x88, 0xde, 0xbc, 0xba, 0xc5, 0x35, 0x3e,
    0x64, 0x74, 0x86, 0x3d, 0x55, 0xbe, 0x64, 0xbe, 0x70, 0xd1, 0xf4, 0xbc,
    0xcf, 0xef, 0x1a, 0xbe, 0xce, 0xc3, 0xe5, 0xbd, 0x06, 0xaa, 0x74, 0xbe,
    0x4c, 0x53, 0xa5, 0x3d, 0xc3, 0xfb, 0x0f, 0xbe, 0x07, 0x96, 0x2b, 0xbe,
    0x67, 0x2f, 0x29, 0x3b, 0x90, 0xb1, 0x9a, 0xbd, 0x2d, 0x74, 0x17, 0x3e,
    0x72, 0x33, 0x54, 0xbe, 0x40, 0x8f, 0x21, 0x3d, 0xb1, 0x6f, 0x79, 0x3c,
    0x67, 0x73, 0xaa, 0xbd, 0xc0, 0x49, 0x9d, 0xbd, 0x23, 0xe6, 0x81, 0xbe,
    0x30, 0xfb, 0x6e, 0xbb, 0x06, 0xd7, 0xd7, 0xbd, 0xe2, 0x2a, 0x33, 0xbe,
    0xe2, 0x8d, 0x46, 0xbe, 0x93, 0x1f, 0x4a, 0x3d, 0x43, 0xbe, 0xb0, 0x3d,
    0x4e, 0xb4, 0x2c, 0xbc, 0xbb, 0xf8, 0x54, 0xbd, 0xbc, 0xdf, 0x16, 0xbe,
    0x3b, 0x54, 0x19, 0xbe, 0xe9, 0x76, 0x1a, 0x3e, 0x0b, 0x16, 0xcd, 0xbc,
    0xc0, 0x96, 0x07, 0x3d, 0xc7, 0x5f, 0x24, 0xbe, 0xea, 0xe3, 0x8c, 0xbd,
    0xbb, 0xba, 0x64, 0xbe, 0x4a, 0x79, 0x29, 0x3d, 0xfb, 0x4f, 0xf1, 0x3d,
    0x16, 0x7b, 0xb3, 0xbd, 0x6e, 0x3e, 0x85, 0xbe, 0xbd, 0xc6, 0x86, 0xbd,
    0x0a, 0x50, 0xfa, 0xbc, 0xbc, 0xa3, 0x0a, 0x3e, 0x76, 0x2d, 0x9a, 0x3d,
    0x46, 0x32, 0x1f, 0x3e, 0x81, 0xd7, 0x80, 0x3c, 0x8d, 0x3d, 0xc5, 0x3d,
    0xe1, 0x50, 0x17, 0x3e, 0xfa, 0xc8, 0x20, 0xbe, 0x2e, 0x18, 0xa4, 0xbd,
    0x05, 0xee, 0x8f, 0xbe, 0x21, 0x80, 0xbe, 0x3d, 0x84, 0x1a, 0xb2, 0x3d,
    0xad, 0x87, 0x94, 0xbd, 0xaf, 0xac, 0xf1, 0xbc, 0x2f, 0x78, 0x28, 0xbe,
    0x98, 0x0c, 0x3a, 0xbe, 0x6a, 0xfd, 0x80, 0x3b, 0x1e, 0x35, 0x29, 0xbd,
    0xbd, 0xd1, 0x02, 0x3d, 0x13, 0x1f, 0x54, 0x3d, 0x38, 0x35, 0x58, 0xbe,
    0x2a, 0xe0, 0xb3, 0x3c, 0x08, 0x15, 0x17, 0x3e, 0xbe, 0x46, 0x6a, 0x3d,
    0xc4, 0x18, 0xbb, 0xba, 0x6b, 0x51, 0xb2, 0x3d, 0xcb, 0x18, 0xa3, 0xbe,
    0x1a, 0x88, 0xe1, 0xbc, 0xe6, 0x70, 0xd2, 0xbd, 0x70, 0xdf, 0x44, 0xbe,
    0x21, 0x24, 0x1f, 0x3d, 0x1f, 0x9e, 0xd7, 0x3d, 0xbb, 0xbb, 0x36, 0xbe,
    0x17, 0x70, 0x3c, 0xbe, 0x05, 0x7e, 0x55, 0xbe, 0x2f, 0x32, 0xaa, 0x3d,
    0xa9, 0xc3, 0xd2, 0xbd, 0x46, 0xb9, 0x59, 0xbe, 0xe1, 0x85, 0x96, 0x3d,
    0xac, 0x6f, 0xc0, 0xbd, 0xdf, 0x04, 0x6f, 0xbd, 0x9a, 0xc3, 0x29, 0xbe,
    0xba, 0x2e, 0x0d, 0xbe, 0xb8, 0x1e, 0xe3, 0x3d, 0x7c, 0x37, 0xa5, 0x3b,
    0x4e, 0xeb, 0x80, 0xbd, 0xe8, 0x99, 0x97, 0xbe, 0x80, 0xe6, 0x44, 0xbc,
    0xab, 0x00, 0xe9, 0xbd, 0x98, 0xcb, 0xed, 0xbb, 0x9b, 0x5d, 0xa3, 0x3e,
    0x6b, 0x1a, 0xd7, 0x3e, 0x7b, 0x68, 0x9a, 0xbe, 0x2d, 0xb8, 0xaf, 0xbc,
    0xfe, 0x82, 0x92, 0xbd, 0x47, 0xba, 0x86, 0x3d, 0x1b, 0x7d, 0x25, 0xbe,
    0x58, 0x00, 0xaa, 0xbe, 0xb7, 0x79, 0x88, 0xbe, 0x8f, 0x61, 0x66, 0xbe,
    0xf9, 0xa3, 0x8c, 0x3d, 0x85, 0x9e, 0xf1, 0xbd, 0x95, 0x39, 0x55, 0xbe,
    0xc1, 0xfb, 0x77, 0xbe, 0x30, 0x2d, 0x63, 0xbe, 0x14, 0x17, 0xbc, 0x3c,
    0xf0, 0x9a, 0x46, 0x3f, 0xb8, 0x15, 0x74, 0x3f, 0x0e, 0x0a, 0x8b, 0xbd,
    0xa2, 0xa2, 0x29, 0x3c, 0xb8, 0xee, 0xc9, 0x3c, 0xe6, 0xaf, 0x64, 0x3d,
    0xbc, 0x7e, 0x32, 0xbe, 0x76, 0xba, 0x98, 0xbd, 0xc4, 0x2b, 0x87, 0xbe,
    0xdc, 0xcf, 0x99, 0xbd, 0x6d, 0xa1, 0x1d, 0x3e, 0xd6, 0xc6, 0x86, 0x3d,
    0x25, 0x10, 0xfe, 0xbd, 0xf7, 0x39, 0x17, 0xbe, 0x9f, 0x9f, 0x40, 0xbe,
    0x34, 0x01, 0x64, 0xbe, 0x4c, 0xb1, 0x3f, 0x3f, 0x17, 0x2e, 0x6d, 0x3f,
    0xa6, 0xfb, 0x6a, 0xbe, 0x12, 0xc6, 0x92, 0xbd, 0x73, 0xcf, 0x4d, 0xbe,
    0x86, 0x99, 0x72, 0xbe, 0x29, 0x8a, 0x5d, 0xbe, 0x49, 0xc2, 0xbd, 0xbd,
    0xa6, 0xea, 0x2d, 0xbe, 0x02, 0xf3, 0x33, 0xbd, 0xaa, 0x8a, 0xda, 0xbd,
    0xce, 0x00, 0x05, 0xbe, 0xeb, 0xdd, 0x9e, 0xbe, 0x95, 0xbe, 0xbc, 0xbd,
    0x9a, 0xe2, 0x03, 0xbd, 0x8a, 0xca, 0x7e, 0x3c, 0x1f, 0x28, 0x27, 0x3f,
    0x32, 0xc9, 0x27, 0x3f, 0x6c, 0x8a, 0x4f, 0xbe, 0xa7, 0x9a, 0xc5, 0xbd,
    0xb7, 0xf8, 0xca, 0xbd, 0xbe, 0xc0, 0x82, 0xbe, 0xd3, 0xc2, 0x7c, 0xbd,
    0x1c, 0xbe, 0xb8, 0xbd, 0x48, 0x1e, 0x77, 0xbe, 0xf3, 0x4c, 0x27, 0xbe,
    0x2c, 0x74, 0x93, 0x3d, 0xb9, 0xa3, 0x16, 0xbe, 0x87, 0x76, 0xa4, 0xbe,
    0x8d, 0x1d, 0x0b, 0xbe, 0x2b, 0x9d, 0x4c, 0x3d, 0x60, 0x18, 0xe4, 0x3b,
    0x2f, 0x01, 0x0c, 0x3f, 0x16, 0x32, 0x5c, 0x3f, 0x65, 0xdc, 0x3a, 0x3d,
    0x61, 0x7f, 0xf0, 0xbd, 0xc7, 0xf5, 0xef, 0xba, 0x19, 0x5c, 0xc7, 0x3c,
    0x3d, 0x5e, 0xe6, 0xbc, 0x12, 0x75, 0xa9, 0xbd, 0xc6, 0x1c, 0x92, 0xbe,
    0x26, 0xdb, 0x64, 0xbe, 0xfa, 0xa6, 0x7e, 0xbe, 0x4b, 0xfc, 0xcc, 0xbd,
    0xbf, 0xf2, 0xb1, 0xbe, 0x20, 0x00, 0x33, 0x3d, 0x51, 0x9d, 0x75, 0x3d,
    0xcd, 0x8a, 0x07, 0xbe, 0x1b, 0x50, 0x29, 0x3f, 0x65, 0x9d, 0x6e, 0x3f,
    0x37, 0xd3, 0xd5, 0xbd, 0x97, 0xd7, 0x25, 0x3e, 0x8b, 0x64, 0x54, 0xbe,
    0x7b, 0x82, 0x93, 0xbc, 0x25, 0x4b, 0x6d, 0xbd, 0x25, 0xab, 0x6c, 0xbe,
    0x78, 0x20, 0xac, 0xbe, 0xd0, 0x54, 0xfa, 0xbd, 0x06, 0x89, 0xe9, 0x3c,
    0xf3, 0x45, 0x99, 0x3d, 0xec, 0x60, 0x8d, 0xbd, 0xe5, 0xae, 0x35, 0x3e,
    0x84, 0xe4, 0x10, 0xbe, 0x74, 0x3f, 0xca, 0xbd, 0x2a, 0xad, 0xd4, 0x3e,
    0xfb, 0xfa, 0x03, 0x3f, 0x6a, 0x80, 0x1f, 0xbe, 0x5c, 0xac, 0x72, 0x3d,
    0x24, 0x1a, 0x9f, 0xbd, 0x26, 0x4b, 0x49, 0xbe, 0xfe, 0x58, 0x18, 0xbe,
    0x75, 0xfd, 0x6d, 0x3d, 0xbc, 0xe2, 0xd0, 0xbd, 0x86, 0xf4, 0xe0, 0xbd,
    0xf7, 0x50, 0xa7, 0xbd, 0xa9, 0x34, 0x8c, 0xbd, 0x5a, 0xd5, 0x8c, 0xbe,
    0xd9, 0x9e, 0xe2, 0xbc, 0x9f, 0x86, 0x27, 0xbe, 0x5f, 0xef, 0x32, 0xbe,
    0x36, 0x77, 0x15, 0xbe, 0x3e, 0x0c, 0xb9, 0xbe, 0xac, 0x9b, 0x42, 0xbf,
    0x9f, 0x8b, 0xe7, 0xbe, 0x56, 0xb1, 0xad, 0xbd, 0x8f, 0x2a, 0x18, 0xbc,
    0xdd, 0x8a, 0x42, 0xbe, 0x14, 0x23, 0x89, 0xbd, 0x27, 0x35, 0x3a, 0xbe,
    0xdf, 0xf5, 0xec, 0xbd, 0xdd, 0xcf, 0x97, 0xbe, 0x15, 0xda, 0x00, 0xbf,
    0x28, 0x95, 0x78, 0xbe, 0x0c, 0xa3, 0x37, 0xbe, 0x75, 0x32, 0x66, 0xbe,
    0xc4, 0x73, 0xae, 0xbe, 0x88, 0x0a, 0x39, 0x3e, 0x93, 0x32, 0xee, 0x3d,
    0x8a, 0x83, 0x5f, 0xbe, 0xe4, 0x31, 0x6b, 0xbe, 0x08, 0x18, 0x5d, 0xbd,
    0xe5, 0xbf, 0xc8, 0xbc, 0x72, 0x8d, 0xa5, 0xbe, 0x68, 0xfd, 0x32, 0x3e,
    0xc0, 0xcd, 0xf0, 0xbd, 0x3d, 0xad, 0x74, 0xbe, 0x51, 0x60, 0x60, 0xbe,
    0xe2, 0x1c, 0x4e, 0xbe, 0xda, 0x66, 0x41, 0xbe, 0x6c, 0x3b, 0x87, 0xbe,
    0xf1, 0x62, 0x91, 0xbe, 0x03, 0x83, 0x8f, 0xbe, 0x17, 0x56, 0x2d, 0x3e,
    0x36, 0x91, 0xa2, 0x3c, 0xa3, 0x4c, 0x22, 0xbe, 0x3d, 0xe8, 0xb3, 0xbe,
    0x31, 0x12, 0x14, 0xbc, 0x15, 0xec, 0x8a, 0x3b, 0x70, 0x4c, 0xa2, 0xbe,
    0x96, 0xb4, 0x29, 0x3e, 0x4b, 0xff, 0xdd, 0xbd, 0x6c, 0xd0, 0x81, 0xbe,
    0xb5, 0x92, 0xe5, 0xbe, 0x24, 0x6b, 0xa6, 0xbe, 0x0d, 0x31, 0x0a, 0xbe,
    0x84, 0x00, 0x9e, 0xbe, 0x7e, 0xf8, 0xfe, 0xbd, 0x03, 0x4e, 0xe6, 0x3d,
    0xe4, 0x96, 0xfe, 0xbd, 0xa3, 0x96, 0x45, 0x3c, 0x6c, 0xb8, 0xcb, 0xbe,
    0x0f, 0xc9, 0xb5, 0xbe, 0xc5, 0x0d, 0x58, 0xbe, 0x3e, 0x1e, 0x27, 0xbd,
    0x61, 0x8c, 0xe8, 0xbe, 0xad, 0x09, 0x9f, 0xbd, 0xcd, 0x91, 0x91, 0xbe,
    0x75, 0xd8, 0x1f, 0xbe, 0xb9, 0x4f, 0xa0, 0xbe, 0x1d, 0x00, 0x0e, 0xbf,
    0x2f, 0xae, 0xdc, 0xbd, 0x88, 0x0d, 0x7b, 0xbe, 0x4b, 0xe7, 0x08, 0xbf,
    0x11, 0xe0, 0xc7, 0xbe, 0xc9, 0x39, 0x76, 0x3d, 0x41, 0xab, 0x06, 0x3e,
    0x4a, 0x9f, 0xe6, 0xbe, 0x85, 0x9c, 0x87, 0x3d, 0x89, 0x82, 0x50, 0xbe,
    0x6d, 0x0e, 0x08, 0xbe, 0x02, 0x9a, 0x3a, 0x3d, 0x27, 0x3f, 0x54, 0xbd,
    0xb3, 0x50, 0x09, 0x3d, 0x1f, 0x2f, 0x41, 0x3e, 0x81, 0x34, 0x26, 0x3e,
    0xcd, 0xc7, 0x20, 0xbe, 0xd4, 0x32, 0xa5, 0xbd, 0xa9, 0x78, 0x9e, 0xbd,
    0x42, 0xaa, 0x99, 0x3c, 0x5e, 0xb3, 0x11, 0xbe, 0xe6, 0xc7, 0x51, 0xbd,
    0xaa, 0xc6, 0x92, 0xbd, 0xd2, 0x1e, 0x56, 0xbe, 0xaa, 0x10, 0xb6, 0x3e,
    0x66, 0x78, 0x4b, 0xbe, 0x8c, 0x0d, 0xe5, 0xba, 0x6e, 0x66, 0xbe, 0x3d,
    0xa7, 0x81, 0xd5, 0x3d, 0x87, 0xaa, 0xf5, 0x3d, 0xab, 0xa8, 0x04, 0x3e,
    0x4a, 0xbc, 0x90, 0x3d, 0x8e, 0xe4, 0x1d, 0xbd, 0x66, 0x26, 0x38, 0x3d,
    0x3c, 0x87, 0xd2, 0xbd, 0xc9, 0xd1, 0x99, 0x3c, 0x5c, 0x72, 0x84, 0x3e,
    0xbf, 0xb3, 0xcb, 0xbe, 0x27, 0x41, 0x0e, 0xbe, 0x79, 0x60, 0xa9, 0xbc,
    0x5b, 0x13, 0x02, 0x3e, 0x82, 0x02, 0x09, 0xbe, 0xd6, 0xc6, 0xf5, 0x3d,
    0xf2, 0x67, 0x51, 0x3d, 0x73, 0xe9, 0x74, 0x3b, 0xbc, 0x50, 0x3c, 0x3e,
    0x64, 0xa2, 0x97, 0x3e, 0x66, 0x95, 0xca, 0x3e, 0x04, 0x87, 0x17, 0x3d,
    0xa4, 0xc3, 0xe8, 0x3d, 0x0b, 0xe3, 0x15, 0xbe, 0xd8, 0xe7, 0xc5, 0x3d,
    0xaa, 0xbc, 0xb5, 0xbc, 0x8b, 0x57, 0x94, 0x3e, 0xcf, 0xfd, 0xa8, 0x3e,
    0x06, 0x7b, 0xc3, 0xbc, 0x6c, 0xf0, 0x15, 0xbf, 0x19, 0x99, 0x0b, 0xbe,
    0xc0, 0x8a, 0x8b, 0x3d, 0xa7, 0x50, 0x83, 0xbe, 0x3d, 0x70, 0x0d, 0x3e,
    0xb8, 0x98, 0x87, 0xbd, 0xcb, 0x45, 0xb7, 0xbd, 0x4e, 0x89, 0xa5, 0x3d,
    0xac, 0x78, 0x89, 0x3c, 0x2c, 0x16, 0x03, 0x3c, 0xe7, 0x87, 0x28, 0xbf,
    0x3d, 0x62, 0x98, 0xbe, 0xf9, 0x5b, 0xac, 0xbe, 0xe6, 0xa3, 0xf5, 0xbd,
    0xd0, 0xd9, 0x56, 0xbe, 0x30, 0xfb, 0xdb, 0xbe, 0x1c, 0x6c, 0xbb, 0xbe,
    0x0a, 0x53, 0x12, 0xbe, 0x88, 0xf1, 0x69, 0x3d, 0xe6, 0xb1, 0xa2, 0xbe,
    0x0f, 0x9c, 0xb9, 0x3e, 0xd8, 0xbf, 0xe9, 0x3d, 0x7e, 0xa8, 0x79, 0x3e,
    0xee, 0xbb, 0xec, 0x3d, 0x3e, 0x8c, 0x80, 0x3e, 0x6b, 0xbd, 0xa4, 0x3d,
    0x45, 0x7c, 0x42, 0xbd, 0xab, 0xa7, 0xbc, 0xbe, 0x0c, 0x85, 0x89, 0xbe,
    0xb5, 0xaf, 0xee, 0xbd, 0xd9, 0xd0, 0xa1, 0xbe, 0xb4, 0xf4, 0xdc, 0xbd,
    0x78, 0xa8, 0xd7, 0xbd, 0x14, 0x5d, 0x64, 0xbc, 0x5e, 0x24, 0x37, 0x3d,
    0xc5, 0x72, 0xc3, 0xbd, 0x4e, 0x9e, 0xc4, 0x3e, 0x19, 0xe9, 0x78, 0x3d,
    0xfe, 0xfa, 0xd8, 0x3d, 0x03, 0xe3, 0x2b, 0xbd, 0x76, 0xde, 0xca, 0x3d,
    0x51, 0x7b, 0x5d, 0x3d, 0xff, 0x2d, 0xa3, 0xbd, 0x3a, 0x31, 0x19, 0xbe,
    0x9b, 0x4a, 0x07, 0xbd, 0xc4, 0xb6, 0x81, 0x3e, 0x9e, 0x51, 0xf0, 0x3c,
    0x5e, 0xda, 0x64, 0xbd, 0xef, 0xad, 0xe6, 0x3c, 0xea, 0xf9, 0xf8, 0x3d,
    0x42, 0xf6, 0x64, 0xbc, 0xf2, 0xb0, 0xb5, 0xbd, 0xf7, 0xdf, 0x01, 0x3f,
    0xab, 0x0d, 0xec, 0x3d, 0xc9, 0x2d, 0x88, 0x3e, 0x50, 0xca, 0xcb, 0x3c,
    0xf2, 0x61, 0x22, 0x3e, 0x52, 0x4a, 0x5c, 0x3d, 0x44, 0x19, 0xa1, 0xbe,
    0x9b, 0xba, 0x5a, 0xbe, 0xf6, 0x6a, 0x0f, 0x3d, 0x98, 0x8f, 0x50, 0xbe,
    0xd0, 0x44, 0x29, 0xbe, 0x03, 0xa7, 0x37, 0xbe, 0x1e, 0x6d, 0xd7, 0xbc,
    0x87, 0x07, 0x2e, 0xbe, 0x1a, 0xa6, 0xa6, 0x3d, 0xce, 0x1f, 0x50, 0xbe,
    0x1f, 0x43, 0x66, 0x3e, 0xad, 0xd2, 0x28, 0x3e, 0xc8, 0xe4, 0x9a, 0x3d,
    0xfa, 0xd1, 0x0c, 0x3d, 0x61, 0x39, 0x1c, 0x3e, 0x15, 0x07, 0xd0, 0x3d,
    0xf9, 0xc5, 0xc4, 0xbd, 0xcd, 0xa6, 0xe1, 0xbe, 0x2d, 0xfe, 0x77, 0xbd,
    0x28, 0xe8, 0x3c, 0xbd, 0xe8, 0xde, 0x71, 0xbe, 0x87, 0x62, 0x8e, 0xbe,
    0x4f, 0x75, 0xda, 0xbd, 0x7f, 0x9e, 0x06, 0x3e, 0xdb, 0x6d, 0x02, 0x3d,
    0x54, 0x44, 0xc1, 0xbe, 0x29, 0x9e, 0x17, 0x3e, 0xc2, 0x01, 0xa2, 0xbe,
    0xbf, 0x1c, 0x90, 0x3d, 0x3d, 0xec, 0x56, 0xbd, 0xfa, 0x5d, 0x38, 0xbd,
    0x4d, 0xff, 0x5c, 0x3d, 0xfa, 0x2b, 0x96, 0xbe, 0x09, 0x33, 0x8b, 0xbe,
    0x9e, 0x17, 0x93, 0xbc, 0x60, 0xaa, 0x0a, 0xbe, 0x2e, 0xda, 0x99, 0x3e,
    0xf5, 0xa5, 0x2c, 0xbe, 0x7b, 0x0d, 0x75, 0xbe, 0xdb, 0x72, 0x80, 0xbd,
    0xad, 0x76, 0x19, 0x3e, 0x5b, 0xce, 0x21, 0xbe, 0xde, 0x32, 0x90, 0x3d,
    0x4c, 0xdd, 0x84, 0xbd, 0x8c, 0x34, 0x60, 0xbd, 0xa9, 0x40, 0x90, 0xbd,
    0xb8, 0xa4, 0xf8, 0xbc, 0xd5, 0x3c, 0x9e, 0xbd, 0xc5, 0xe3, 0x0f, 0xbd,
    0x6b, 0x46, 0xbd, 0xbd, 0xdf, 0x83, 0x30, 0x3d, 0x5d, 0xa8, 0x47, 0xbe,
    0x76, 0x84, 0x50, 0xbe, 0x89, 0x6c, 0xbf, 0xbe, 0xf8, 0xe6, 0xdb, 0x3e,
    0x8a, 0x6c, 0x84, 0xbe, 0x98, 0xe0, 0x1c, 0x3e, 0xb3, 0x83, 0xec, 0x3c,
    0x41, 0xd4, 0xa5, 0x3d, 0x55, 0x43, 0xa6, 0x3b, 0x96, 0xc4, 0x45, 0x3e,
    0xc6, 0xe9, 0xcf, 0xbd, 0x24, 0xa8, 0x42, 0xbd, 0x32, 0x25, 0xe5, 0x3d,
    0x77, 0x53, 0x81, 0xbe, 0x9f, 0xe9, 0x9d, 0x3d, 0x36, 0xdd, 0x26, 0x3e,
    0xc0, 0x8d, 0x80, 0xbe, 0x14, 0xf1, 0xcb, 0xbd, 0x60, 0x16, 0x25, 0xbe,
    0x7c, 0xeb, 0x3e, 0x3d, 0xc3, 0x4b, 0x4c, 0xbe, 0x4e, 0x5a, 0xe8, 0x3b,
    0x61, 0xd3, 0x30, 0xbd, 0xf1, 0x91, 0x5e, 0x3c, 0x19, 0x62, 0x94, 0xbd,
    0x1c, 0x5f, 0x4d, 0xbe, 0xee, 0xaa, 0x16, 0xbe, 0x46, 0x58, 0x29, 0x3e,
    0xdd, 0xc7, 0xd3, 0x3c, 0xd9, 0x9c, 0x0d, 0xbe, 0x4e, 0x9d, 0x7f, 0x3e,
    0xe4, 0x64, 0xe1, 0x3d, 0x9f, 0x10, 0xb8, 0x3e, 0x8b, 0xb6, 0xe9, 0x3d,
    0x28, 0x2f, 0xac, 0x3d, 0xf6, 0xdc, 0x06, 0x3e, 0xa5, 0x37, 0x8e, 0xbe,
    0x68, 0x18, 0x3e, 0xbd, 0x56, 0x85, 0xe4, 0xbe, 0x83, 0x10, 0x2f, 0xbf,
    0x82, 0x94, 0x81, 0xbe, 0x14, 0xd4, 0x51, 0xbe, 0x09, 0xab, 0x66, 0x3d,
    0x8c, 0xa8, 0xb3, 0xbe, 0x46, 0x7f, 0x05, 0xbc, 0x41, 0xcb, 0x2f, 0xbe,
    0xee, 0xa6, 0x02, 0xbe, 0x0d, 0x21, 0x6d, 0xbe, 0x9a, 0x95, 0xc9, 0x3d,
    0x8d, 0x88, 0xc3, 0xbd, 0xb3, 0x62, 0xf3, 0xbe, 0xf9, 0xca, 0x0b, 0xbe,
    0x59, 0xc7, 0xf5, 0xbe, 0xf2, 0xa9, 0x3a, 0xbd, 0xf4, 0xaf, 0xc9, 0xbe,
    0x79, 0x18, 0xaa, 0xbe, 0xad, 0x80, 0xe8, 0xbd, 0xef, 0xd8, 0x0c, 0xbd,
    0x6e, 0xe4, 0x82, 0x3d, 0x14, 0x61, 0xb7, 0xbe, 0xb0, 0x8d, 0xf1, 0xbc,
    0x49, 0xab, 0xe1, 0xbe, 0x01, 0x1c, 0xe8, 0xbe, 0x3c, 0xf6, 0x38, 0xbf,
    0xf3, 0x94, 0x0f, 0xbe, 0x9e, 0x82, 0xb2, 0x3d, 0x1d, 0x67, 0xa3, 0xbc,
    0x61, 0x3c, 0xe9, 0xbd, 0xba, 0x46, 0xbf, 0xbd, 0x2b, 0x44, 0x8d, 0xbb,
    0xaf, 0x7d, 0x4d, 0xbd, 0xe5, 0xdf, 0x54, 0xbe, 0x37, 0xe1, 0x92, 0xbd,
    0xc8, 0xb0, 0x33, 0xbe, 0xc9, 0x16, 0x3a, 0xbe, 0x87, 0x00, 0x81, 0xbd,
    0xad, 0x80, 0x65, 0xbd, 0x3a, 0x1b, 0xba, 0xbd, 0xe6, 0x86, 0x19, 0xbe,
    0xff, 0xf3, 0xa6, 0xbe, 0xe5, 0xf8, 0x3d, 0x3d, 0xf0, 0x8b, 0xa5, 0x3c,
    0xb7, 0x68, 0x51, 0xbe, 0x7d, 0x9f, 0x4e, 0xbe, 0xfc, 0xd9, 0x6d, 0xbe,
    0xbf, 0x91, 0xc7, 0xbd, 0x8a, 0xfe, 0x7b, 0xbe, 0x88, 0x79, 0xce, 0xbe,
    0xcb, 0x43, 0x28, 0xbd, 0x9f, 0x33, 0xf6, 0xbd, 0xbd, 0xcd, 0xe5, 0xbd,
    0xc0, 0xf1, 0xb6, 0xbd, 0x12, 0x98, 0x88, 0xbd, 0x0c, 0x02, 0x82, 0xbe,
    0xa5, 0xf6, 0xa6, 0xbe, 0xe4, 0x2b, 0x6f, 0xbe, 0xa7, 0x4d, 0xfc, 0xbd,
    0xd3, 0xf9, 0x0a, 0xbe, 0x47, 0xd9, 0xf0, 0x3b, 0x2e, 0x6a, 0x81, 0xbe,
    0x91, 0x6c, 0xbc, 0x3c, 0x33, 0xc1, 0xb5, 0xbc, 0x13, 0xbd, 0x8c, 0xbd,
    0xff, 0x02, 0xa6, 0xbd, 0xd4, 0xdc, 0x22, 0x3d, 0xfa, 0xc4, 0xd6, 0x3d,
    0x8b, 0xe9, 0x19, 0xbe, 0x86, 0xde, 0xfc, 0xbd, 0xfc, 0xcd, 0x63, 0xbd,
    0x48, 0xb9, 0x53, 0xbd, 0xfa, 0xc9, 0xf2, 0xbd, 0x8f, 0x81, 0xe6, 0x3b,
    0x66, 0xfd, 0xff, 0xff, 0x10, 0x00, 0x00, 0x00, 0x07, 0x00, 0x00, 0x00,
    0x14, 0x00, 0x00, 0x00, 0x2c, 0x00, 0x00, 0x00, 0x02, 0x00, 0x00, 0x00,
    0x10, 0x00, 0x00, 0x00, 0x70, 0x00, 0x00, 0x00, 0x17, 0x00, 0x00, 0x00,
    0x73, 0x65, 0x71, 0x75, 0x65, 0x6e, 0x74, 0x69, 0x61, 0x6c, 0x2f, 0x64,
    0x65, 0x6e, 0x73, 0x65, 0x2f, 0x4d, 0x61, 0x74, 0x4d, 0x75, 0x6c, 0x00,
    0xd0, 0xfc, 0xff, 0xff, 0xda, 0xfd, 0xff, 0xff, 0x04, 0x00, 0x00, 0x00,
    0x08, 0x00, 0x00, 0x00, 0xff, 0xff, 0xff, 0xff, 0x70, 0x00, 0x00, 0x00,
    0x00, 0x00, 0x0e, 0x00, 0x18, 0x00, 0x08, 0x00, 0x07, 0x00, 0x0c, 0x00,
    0x10, 0x00, 0x14, 0x00, 0x0e, 0x00, 0x00, 0x00, 0x00, 0x00, 0x00, 0x02,
    0x10, 0x00, 0x00, 0x00, 0x06, 0x00, 0x00, 0x00, 0x10, 0x00, 0x00, 0x00,
    0x2c, 0x00, 0x00, 0x00, 0x01, 0x00, 0x00, 0x00, 0x02, 0x00, 0x00, 0x00,
    0x18, 0x00, 0x00, 0x00, 0x73, 0x65, 0x71, 0x75, 0x65, 0x6e, 0x74, 0x69,
    0x61, 0x6c, 0x2f, 0x66, 0x6c, 0x61, 0x74, 0x74, 0x65, 0x6e, 0x2f, 0x43,
    0x6f, 0x6e, 0x73, 0x74, 0x00, 0x00, 0x00, 0x00, 0x38, 0xfd, 0xff, 0xff,
    0x42, 0xfe, 0xff, 0xff, 0x04, 0x00, 0x00, 0x00, 0x0c, 0x00, 0x00, 0x00,
    0xb1, 0x2a, 0xef, 0xbf, 0x9b, 0xb0, 0x47, 0xc0, 0x70, 0x13, 0x5a, 0x40,
    0x26, 0xfe, 0xff, 0xff, 0x10, 0x00, 0x00, 0x00, 0x05, 0x00, 0x00, 0x00,
    0x10, 0x00, 0x00, 0x00, 0x44, 0x00, 0x00, 0x00, 0x01, 0x00, 0x00, 0x00,
    0x03, 0x00, 0x00, 0x00, 0x32, 0x00, 0x00, 0x00, 0x73, 0x65, 0x71, 0x75,
    0x65, 0x6e, 0x74, 0x69, 0x61, 0x6c, 0x2f, 0x64, 0x65, 0x6e, 0x73, 0x65,
    0x5f, 0x31, 0x2f, 0x42, 0x69, 0x61, 0x73, 0x41, 0x64, 0x64, 0x2f, 0x52,
    0x65, 0x61, 0x64, 0x56, 0x61, 0x72, 0x69, 0x61, 0x62, 0x6c, 0x65, 0x4f,
    0x70, 0x2f, 0x72, 0x65, 0x73, 0x6f, 0x75, 0x72, 0x63, 0x65, 0x00, 0x00,
    0xa8, 0xfd, 0xff, 0xff, 0xb2, 0xfe, 0xff, 0xff, 0x04, 0x00, 0x00, 0x00,
    0x40, 0x00, 0x00, 0x00, 0x76, 0x42, 0x08, 0xbf, 0xbf, 0x53, 0x93, 0x3e,
    0xcc, 0x8f, 0x60, 0xbf, 0x9c, 0x3f, 0x76, 0x40, 0xe9, 0x0f, 0x21, 0xbf,
    0x64, 0xa2, 0x2e, 0xbf, 0x08, 0x29, 0xe4, 0xbf, 0x72, 0x7f, 0x04, 0x40,
    0x43, 0x9a, 0x3e, 0xbe, 0x29, 0x5b, 0x3b, 0xbe, 0x23, 0x16, 0x03, 0xbe,
    0x5a, 0xda, 0x25, 0xbe, 0x38, 0xc3, 0x8a, 0x3e, 0x78, 0xe3, 0xf4, 0xbe,
    0x3e, 0x39, 0x15, 0x40, 0x71, 0xf9, 0x8a, 0xbf, 0xca, 0xfe, 0xff, 0xff,
    0x10, 0x00, 0x00, 0x00, 0x04, 0x00, 0x00, 0x00, 0x10, 0x00, 0x00, 0x00,
    0x44, 0x00, 0x00, 0x00, 0x01, 0x00, 0x00, 0x00, 0x10, 0x00, 0x00, 0x00,
    0x30, 0x00, 0x00, 0x00, 0x73, 0x65, 0x71, 0x75, 0x65, 0x6e, 0x74, 0x69,
    0x61, 0x6c, 0x2f, 0x64, 0x65, 0x6e, 0x73, 0x65, 0x2f, 0x42, 0x69, 0x61,
    0x73, 0x41, 0x64, 0x64, 0x2f, 0x52, 0x65, 0x61, 0x64, 0x56, 0x61, 0x72,
    0x69, 0x61, 0x62, 0x6c, 0x65, 0x4f, 0x70, 0x2f, 0x72, 0x65, 0x73, 0x6f,
    0x75, 0x72, 0x63, 0x65, 0x00, 0x00, 0x00, 0x00, 0x4c, 0xfe, 0xff, 0xff,
    0x56, 0xff, 0xff, 0xff, 0x04, 0x00, 0x00, 0x00, 0x40, 0x00, 0x00, 0x00,
    0x87, 0xb1, 0xe8, 0x3f, 0xeb, 0x68, 0xa3, 0x3f, 0x46, 0x6a, 0x88, 0xbf,
    0x97, 0xd3, 0xe3, 0xbf, 0xe8, 0xcb, 0xb7, 0xbe, 0x36, 0xa5, 0xc4, 0xbe,
    0x86, 0x99, 0x1b, 0xc0, 0xbd, 0x7c, 0xd5, 0xbd, 0x5b, 0xde, 0x52, 0xbe,
    0x6a, 0xdc, 0x39, 0xbf, 0x24, 0x34, 0x68, 0x3e, 0xb4, 0xf1, 0xb1, 0x3c,
    0x3a, 0x92, 0x8a, 0x3d, 0x9a, 0x5a, 0x96, 0xbf, 0xe0, 0xeb, 0x60, 0xbf,
    0x1d, 0xcd, 0xe0, 0xbf, 0x6e, 0xff, 0xff, 0xff, 0x10, 0x00, 0x00, 0x00,
    0x03, 0x00, 0x00, 0x00, 0x10, 0x00, 0x00, 0x00, 0x48, 0x00, 0x00, 0x00,
    0x01, 0x00, 0x00, 0x00, 0x10, 0x00, 0x00, 0x00, 0x33, 0x00, 0x00, 0x00,
    0x73, 0x65, 0x71, 0x75, 0x65, 0x6e, 0x74, 0x69, 0x61, 0x6c, 0x2f, 0x63,
    0x6f, 0x6e, 0x76, 0x32, 0x64, 0x5f, 0x31, 0x2f, 0x42, 0x69, 0x61, 0x73,
    0x41, 0x64, 0x64, 0x2f, 0x52, 0x65, 0x61, 0x64, 0x56, 0x61, 0x72, 0x69,
    0x61, 0x62, 0x6c, 0x65, 0x4f, 0x70, 0x2f, 0x72, 0x65, 0x73, 0x6f, 0x75,
    0x72, 0x63, 0x65, 0x00, 0x04, 0x00, 0x06, 0x00, 0x04, 0x00, 0x00, 0x00,
    0x00, 0x00, 0x06, 0x00, 0x08, 0x00, 0x04, 0x00, 0x06, 0x00, 0x00, 0x00,
    0x04, 0x00, 0x00, 0x00, 0x20, 0x00, 0x00, 0x00, 0x25, 0x49, 0xbd, 0xbf,
    0x39, 0x24, 0xd6, 0xbf, 0xbf, 0xc0, 0xdc, 0xbf, 0x93, 0xbf, 0xdd, 0xbf,
    0xb9, 0xdb, 0x57, 0xbf, 0xc5, 0x4a, 0x2f, 0xbf, 0xf6, 0x6a, 0x72, 0xbf,
    0xf1, 0xd3, 0x8a, 0xbf, 0x00, 0x00, 0x0e, 0x00, 0x14, 0x00, 0x04, 0x00,
    0x00, 0x00, 0x08, 0x00, 0x0c, 0x00, 0x10, 0x00, 0x0e, 0x00, 0x00, 0x00,
    0x10, 0x00, 0x00, 0x00, 0x02, 0x00, 0x00, 0x00, 0x10, 0x00, 0x00, 0x00,
    0x44, 0x00, 0x00, 0x00, 0x01, 0x00, 0x00, 0x00, 0x08, 0x00, 0x00, 0x00,
    0x31, 0x00, 0x00, 0x00, 0x73, 0x65, 0x71, 0x75, 0x65, 0x6e, 0x74, 0x69,
    0x61, 0x6c, 0x2f, 0x63, 0x6f, 0x6e, 0x76, 0x32, 0x64, 0x2f, 0x42, 0x69,
    0x61, 0x73, 0x41, 0x64, 0x64, 0x2f, 0x52, 0x65, 0x61, 0x64, 0x56, 0x61,
    0x72, 0x69, 0x61, 0x62, 0x6c, 0x65, 0x4f, 0x70, 0x2f, 0x72, 0x65, 0x73,
    0x6f, 0x75, 0x72, 0x63, 0x65, 0x00, 0x00, 0x00, 0x90, 0xff, 0xff, 0xff,
    0x14, 0x00, 0x18, 0x00, 0x04, 0x00, 0x00, 0x00, 0x08, 0x00, 0x0c, 0x00,
    0x10, 0x00, 0x00, 0x00, 0x00, 0x00, 0x14, 0x00, 0x14, 0x00, 0x00, 0x00,
    0x14, 0x00, 0x00, 0x00, 0x01, 0x00, 0x00, 0x00, 0x20, 0x00, 0x00, 0x00,
    0x44, 0x00, 0x00, 0x00, 0x2c, 0x00, 0x00, 0x00, 0x04, 0x00, 0x00, 0x00,
    0x01, 0x00, 0x00, 0x00, 0x40, 0x00, 0x00, 0x00, 0x03, 0x00, 0x00, 0x00,
    0x01, 0x00, 0x00, 0x00, 0x0c, 0x00, 0x00, 0x00, 0x63, 0x6f, 0x6e, 0x76,
    0x32, 0x64, 0x5f, 0x69, 0x6e, 0x70, 0x75, 0x74, 0x00, 0x00, 0x00, 0x00,
    0x04, 0x00, 0x00, 0x00, 0xff, 0xff, 0xff, 0xff, 0x40, 0x00, 0x00, 0x00,
    0x03, 0x00, 0x00, 0x00, 0x01, 0x00, 0x00, 0x00, 0xfc, 0xff, 0xff, 0xff,
    0x04, 0x00, 0x04, 0x00, 0x04, 0x00, 0x00, 0x00};

unsigned int model_tflite_len = 13052; // Fill the int in `src/model.cc` here