#include "magic_wand_model_data.h"

// We need to keep the data array aligned on some architectures.

#ifdef __has_attribute

#define HAVE_ATTRIBUTE(x) __has_attribute(x)

#else

#define HAVE_ATTRIBUTE(x) 0

#endif

#if HAVE_ATTRIBUTE(aligned) || (defined(__GNUC__) && !defined(__clang__))

#define DATA_ALIGN_ATTRIBUTE __attribute__((aligned(4)))

#else

#define DATA_ALIGN_ATTRIBUTE

#endif

const unsigned char g_magic_wand_model_data[] DATA_ALIGN_ATTRIBUTE = {
    0x1c, 0x00, 0x00, 0x00, 0x54, 0x46, 0x4c, 0x33, 0x14, 0x00, 0x20, 0x00,
    0x04, 0x00, 0x08, 0x00, 0x0c, 0x00, 0x10, 0x00, 0x14, 0x00, 0x00, 0x00,
    0x18, 0x00, 0x1c, 0x00, 0x14, 0x00, 0x00, 0x00, 0x03, 0x00, 0x00, 0x00,
    0x18, 0x00, 0x00, 0x00, 0x2c, 0x00, 0x00, 0x00, 0xd8, 0x00, 0x00, 0x00,
    0x2c, 0x00, 0x00, 0x00, 0x80, 0x00, 0x00, 0x00, 0x78, 0x00, 0x00, 0x00,
    0x05, 0x00, 0x00, 0x00, 0x28, 0x07, 0x00, 0x00, 0x44, 0x06, 0x00, 0x00,
    0xbc, 0x03, 0x00, 0x00, 0xf8, 0x02, 0x00, 0x00, 0xac, 0x01, 0x00, 0x00,
    0x01, 0x00, 0x00, 0x00, 0xd0, 0x00, 0x00, 0x00, 0x14, 0x00, 0x00, 0x00,
    0xdc, 0x32, 0x00, 0x00, 0xd8, 0x32, 0x00, 0x00, 0xd0, 0x31, 0x00, 0x00,
    0x1c, 0x31, 0x00, 0x00, 0x74, 0x30, 0x00, 0x00, 0xfc, 0x2f, 0x00, 0x00,
    0x90, 0x2f, 0x00, 0x00, 0x40, 0x13, 0x00, 0x00, 0xec, 0x11, 0x00, 0x00,
    0x10, 0x10, 0x00, 0x00, 0xb4, 0x07, 0x00, 0x00, 0xb0, 0x32, 0x00, 0x00,
    0xac, 0x32, 0x00, 0x00, 0xa8, 0x32, 0x00, 0x00, 0xa4, 0x32, 0x00, 0x00,
    0xa0, 0x32, 0x00, 0x00, 0x9c, 0x32, 0x00, 0x00, 0x98, 0x32, 0x00, 0x00,
    0x94, 0x32, 0x00, 0x00, 0x3c, 0x00, 0x00, 0x00, 0x00, 0x00, 0x00, 0x00,
    0x01, 0x00, 0x00, 0x00, 0x0c, 0x00, 0x00, 0x00, 0x08, 0x00, 0x0c, 0x00,
    0x04, 0x00, 0x08, 0x00, 0x08, 0x00, 0x00, 0x00, 0x08, 0x00, 0x00, 0x00,
    0x13, 0x00, 0x00, 0x00, 0x13, 0x00, 0x00, 0x00, 0x6d, 0x69, 0x6e, 0x5f,
    0x72, 0x75, 0x6e, 0x74, 0x69, 0x6d, 0x65, 0x5f, 0x76, 0x65, 0x72, 0x73,
    0x69, 0x6f, 0x6e, 0x00, 0xb6, 0xce, 0xff, 0xff, 0x04, 0x00, 0x00, 0x00,
    0x10, 0x00, 0x00, 0x00, 0x31, 0x2e, 0x35, 0x2e, 0x30, 0x00, 0x00, 0x00,
    0x00, 0x00, 0x00, 0x00, 0x00, 0x00, 0x00, 0x00, 0x0f, 0x00, 0x00, 0x00,
    0x4d, 0x4c, 0x49, 0x52, 0x20, 0x43, 0x6f, 0x6e, 0x76, 0x65, 0x72, 0x74,
    0x65, 0x64, 0x2e, 0x00, 0x00, 0x00, 0x0e, 0x00, 0x18, 0x00, 0x04, 0x00,
    0x08, 0x00, 0x0c, 0x00, 0x10, 0x00, 0x14, 0x00, 0x0e, 0x00, 0x00, 0x00,
    0x14, 0x00, 0x00, 0x00, 0x5c, 0x00, 0x00, 0x00, 0x60, 0x00, 0x00, 0x00,
    0x64, 0x00, 0x00, 0x00, 0x84, 0x00, 0x00, 0x00, 0x12, 0x00, 0x00, 0x00,
    0x9c, 0x31, 0x00, 0x00, 0x2c, 0x31, 0x00, 0x00, 0x88, 0x30, 0x00, 0x00,
    0xe0, 0x2f, 0x00, 0x00, 0x38, 0x2f, 0x00, 0x00, 0xd4, 0x2e, 0x00, 0x00,
    0x6c, 0x2e, 0x00, 0x00, 0x18, 0x12, 0x00, 0x00, 0xbc, 0x10, 0x00, 0x00,
    0xe0, 0x0e, 0x00, 0x00, 0x0c, 0x06, 0x00, 0x00, 0x28, 0x05, 0x00, 0x00,
    0xe8, 0x03, 0x00, 0x00, 0x3c, 0x03, 0x00, 0x00, 0x98, 0x02, 0x00, 0x00,
    0xd4, 0x01, 0x00, 0x00, 0x10, 0x01, 0x00, 0x00, 0x84, 0x00, 0x00, 0x00,
    0x01, 0x00, 0x00, 0x00, 0x00, 0x00, 0x00, 0x00, 0x01, 0x00, 0x00, 0x00,
    0x11, 0x00, 0x00, 0x00, 0x08, 0x00, 0x00, 0x00, 0x74, 0x05, 0x00, 0x00,
    0x94, 0x04, 0x00, 0x00, 0x78, 0x03, 0x00, 0x00, 0xbc, 0x02, 0x00, 0x00,
    0x30, 0x02, 0x00, 0x00, 0x50, 0x01, 0x00, 0x00, 0xa8, 0x00, 0x00, 0x00,
    0x10, 0x00, 0x00, 0x00, 0x04, 0x00, 0x00, 0x00, 0x6d, 0x61, 0x69, 0x6e,
    0x00, 0x00, 0x00, 0x00, 0x7a, 0xff, 0xff, 0xff, 0x00, 0x00, 0x00, 0x09,
    0x04, 0x00, 0x00, 0x00, 0x1c, 0x00, 0x00, 0x00, 0x10, 0x00, 0x00, 0x00,
    0x04, 0x00, 0x00, 0x00, 0xb2, 0xcf, 0xff, 0xff, 0x00, 0x00, 0x80, 0x3f,
    0x01, 0x00, 0x00, 0x00, 0x11, 0x00, 0x00, 0x00, 0x01, 0x00, 0x00, 0x00,
    0x10, 0x00, 0x00, 0x00, 0xa0, 0xfa, 0xff, 0xff, 0x19, 0x00, 0x00, 0x00,
    0x00, 0x00, 0x00, 0x19, 0x01, 0x00, 0x00, 0x00, 0x40, 0xcf, 0xff, 0xff,
    0x14, 0x00, 0x00, 0x00, 0x12, 0x00, 0x00, 0x00, 0x18, 0x00, 0x00, 0x00,
    0x30, 0x00, 0x00, 0x00, 0x20, 0x00, 0x00, 0x00, 0x02, 0x00, 0x00, 0x00,
    0x01, 0x00, 0x00, 0x00, 0x04, 0x00, 0x00, 0x00, 0x08, 0x00, 0x00, 0x00,
    0x49, 0x64, 0x65, 0x6e, 0x74, 0x69, 0x74, 0x79, 0x00, 0x00, 0x00, 0x00,
    0x02, 0x00, 0x00, 0x00, 0xff, 0xff, 0xff, 0xff, 0x04, 0x00, 0x00, 0x00,
    0x24, 0xd0, 0xff, 0xff, 0x00, 0x00, 0x0e, 0x00, 0x18, 0x00, 0x08, 0x00,
    0x0c, 0x00, 0x10, 0x00, 0x07, 0x00, 0x14, 0x00, 0x0e, 0x00, 0x00, 0x00,
    0x00, 0x00, 0x00, 0x08, 0x03, 0x00, 0x00, 0x00, 0x18, 0x00, 0x00, 0x00,
    0x0c, 0x00, 0x00, 0x00, 0x04, 0x00, 0x00, 0x00, 0x40, 0xcf, 0xff, 0xff,
    0x01, 0x00, 0x00, 0x00, 0x10, 0x00, 0x00, 0x00, 0x03, 0x00, 0x00, 0x00,
    0x0f, 0x00, 0x00, 0x00, 0x07, 0x00, 0x00, 0x00, 0x04, 0x00, 0x00, 0x00,
    0xc8, 0xcf, 0xff, 0xff, 0x14, 0x00, 0x00, 0x00, 0x11, 0x00, 0x00, 0x00,
    0x18, 0x00, 0x00, 0x00, 0x5c, 0x00, 0x00, 0x00, 0x4c, 0x00, 0x00, 0x00,
    0x02, 0x00, 0x00, 0x00, 0x01, 0x00, 0x00, 0x00, 0x04, 0x00, 0x00, 0x00,
    0x34, 0x00, 0x00, 0x00, 0x73, 0x65, 0x71, 0x75, 0x65, 0x6e, 0x74, 0x69,
    0x61, 0x6c, 0x2f, 0x64, 0x65, 0x6e, 0x73, 0x65, 0x5f, 0x31, 0x2f, 0x4d,
    0x61, 0x74, 0x4d, 0x75, 0x6c, 0x3b, 0x73, 0x65, 0x71, 0x75, 0x65, 0x6e,
    0x74, 0x69, 0x61, 0x6c, 0x2f, 0x64, 0x65, 0x6e, 0x73, 0x65, 0x5f, 0x31,
    0x2f, 0x42, 0x69, 0x61, 0x73, 0x41, 0x64, 0x64, 0x00, 0x00, 0x00, 0x00,
    0x02, 0x00, 0x00, 0x00, 0xff, 0xff, 0xff, 0xff, 0x04, 0x00, 0x00, 0x00,
    0xc8, 0xcf, 0xff, 0xff, 0xda, 0xfc, 0xff, 0xff, 0x00, 0x00, 0x00, 0x08,
    0x03, 0x00, 0x00, 0x00, 0x24, 0x00, 0x00, 0x00, 0x18, 0x00, 0x00, 0x00,
    0x0c, 0x00, 0x00, 0x00, 0x00, 0x00, 0x06, 0x00, 0x08, 0x00, 0x07, 0x00,
    0x06, 0x00, 0x00, 0x00, 0x00, 0x00, 0x00, 0x01, 0x01, 0x00, 0x00, 0x00,
    0x0f, 0x00, 0x00, 0x00, 0x03, 0x00, 0x00, 0x00, 0x0e, 0x00, 0x00, 0x00,
    0x06, 0x00, 0x00, 0x00, 0x03, 0x00, 0x00, 0x00, 0xe8, 0xfb, 0xff, 0xff,
    0x09, 0x00, 0x00, 0x00, 0x00, 0x00, 0x00, 0x09, 0x01, 0x00, 0x00, 0x00,
    0x88, 0xd0, 0xff, 0xff, 0x14, 0x00, 0x00, 0x00, 0x10, 0x00, 0x00, 0x00,
    0x18, 0x00, 0x00, 0x00, 0x6c, 0x00, 0x00, 0x00, 0x5c, 0x00, 0x00, 0x00,
    0x02, 0x00, 0x00, 0x00, 0x01, 0x00, 0x00, 0x00, 0x10, 0x00, 0x00, 0x00,
    0x46, 0x00, 0x00, 0x00, 0x73, 0x65, 0x71, 0x75, 0x65, 0x6e, 0x74, 0x69,
    0x61, 0x6c, 0x2f, 0x64, 0x65, 0x6e, 0x73, 0x65, 0x2f, 0x4d, 0x61, 0x74,
    0x4d, 0x75, 0x6c, 0x3b, 0x73, 0x65, 0x71, 0x75, 0x65, 0x6e, 0x74, 0x69,
    0x61, 0x6c, 0x2f, 0x64, 0x65, 0x6e, 0x73, 0x65, 0x2f, 0x52, 0x65, 0x6c,
    0x75, 0x3b, 0x73, 0x65, 0x71, 0x75, 0x65, 0x6e, 0x74, 0x69, 0x61, 0x6c,
    0x2f, 0x64, 0x65, 0x6e, 0x73, 0x65, 0x2f, 0x42, 0x69, 0x61, 0x73, 0x41,
    0x64, 0x64, 0x00, 0x00, 0x02, 0x00, 0x00, 0x00, 0xff, 0xff, 0xff, 0xff,
    0x10, 0x00, 0x00, 0x00, 0xa8, 0xd1, 0xff, 0xff, 0x00, 0x00, 0x0a, 0x00,
    0x10, 0x00, 0x04, 0x00, 0x08, 0x00, 0x0c, 0x00, 0x0a, 0x00, 0x00, 0x00,
    0x02, 0x00, 0x00, 0x00, 0x10, 0x00, 0x00, 0x00, 0x04, 0x00, 0x00, 0x00,
    0x01, 0x00, 0x00, 0x00, 0x0e, 0x00, 0x00, 0x00, 0x02, 0x00, 0x00, 0x00,
    0x0d, 0x00, 0x00, 0x00, 0x05, 0x00, 0x00, 0x00, 0xa8, 0xfc, 0xff, 0xff,
    0x16, 0x00, 0x00, 0x00, 0x00, 0x00, 0x00, 0x16, 0x01, 0x00, 0x00, 0x00,
    0x48, 0xd1, 0xff, 0xff, 0x14, 0x00, 0x00, 0x00, 0x0f, 0x00, 0x00, 0x00,
    0x18, 0x00, 0x00, 0x00, 0x40, 0x00, 0x00, 0x00, 0x30, 0x00, 0x00, 0x00,
    0x02, 0x00, 0x00, 0x00, 0x01, 0x00, 0x00, 0x00, 0x70, 0x00, 0x00, 0x00,
    0x1a, 0x00, 0x00, 0x00, 0x73, 0x65, 0x71, 0x75, 0x65, 0x6e, 0x74, 0x69,
    0x61, 0x6c, 0x2f, 0x66, 0x6c, 0x61, 0x74, 0x74, 0x65, 0x6e, 0x2f, 0x52,
    0x65, 0x73, 0x68, 0x61, 0x70, 0x65, 0x00, 0x00, 0x02, 0x00, 0x00, 0x00,
    0xff, 0xff, 0xff, 0xff, 0x70, 0x00, 0x00, 0x00, 0x2c, 0xd1, 0xff, 0xff,
    0x3e, 0xfe, 0xff, 0xff, 0x00, 0x00, 0x00, 0x05, 0x01, 0x00, 0x00, 0x00,
    0x38, 0x00, 0x00, 0x00, 0x2c, 0x00, 0x00, 0x00, 0x14, 0x00, 0x00, 0x00,
    0x00, 0x00, 0x0e, 0x00, 0x14, 0x00, 0x00, 0x00, 0x10, 0x00, 0x0c, 0x00,
    0x08, 0x00, 0x04, 0x00, 0x0e, 0x00, 0x00, 0x00, 0x03, 0x00, 0x00, 0x00,
    0x01, 0x00, 0x00, 0x00, 0x03, 0x00, 0x00, 0x00, 0x01, 0x00, 0x00, 0x00,
    0x01, 0x00, 0x00, 0x00, 0x0d, 0x00, 0x00, 0x00, 0x01, 0x00, 0x00, 0x00,
    0x0c, 0x00, 0x00, 0x00, 0xe8, 0xd1, 0xff, 0xff, 0x14, 0x00, 0x00, 0x00,
    0x0e, 0x00, 0x00, 0x00, 0x20, 0x00, 0x00, 0x00, 0x58, 0x00, 0x00, 0x00,
    0x40, 0x00, 0x00, 0x00, 0x04, 0x00, 0x00, 0x00, 0x01, 0x00, 0x00, 0x00,
    0x07, 0x00, 0x00, 0x00, 0x01, 0x00, 0x00, 0x00, 0x10, 0x00, 0x00, 0x00,
    0x22, 0x00, 0x00, 0x00, 0x73, 0x65, 0x71, 0x75, 0x65, 0x6e, 0x74, 0x69,
    0x61, 0x6c, 0x2f, 0x6d, 0x61, 0x78, 0x5f, 0x70, 0x6f, 0x6f, 0x6c, 0x69,
    0x6e, 0x67, 0x32, 0x64, 0x5f, 0x31, 0x2f, 0x4d, 0x61, 0x78, 0x50, 0x6f,
    0x6f, 0x6c, 0x00, 0x00, 0x04, 0x00, 0x00, 0x00, 0xff, 0xff, 0xff, 0xff,
    0x07, 0x00, 0x00, 0x00, 0x01, 0x00, 0x00, 0x00, 0x10, 0x00, 0x00, 0x00,
    0xe4, 0xd1, 0xff, 0xff, 0x1a, 0xfe, 0xff, 0xff, 0x00, 0x00, 0x00, 0x01,
    0x24, 0x00, 0x00, 0x00, 0x18, 0x00, 0x00, 0x00, 0x04, 0x00, 0x00, 0x00,
    0x0c, 0xfe, 0xff, 0xff, 0x01, 0x00, 0x00, 0x00, 0x01, 0x00, 0x00, 0x00,
    0x00, 0x00, 0x00, 0x01, 0x01, 0x00, 0x00, 0x00, 0x0c, 0x00, 0x00, 0x00,
    0x03, 0x00, 0x00, 0x00, 0x0b, 0x00, 0x00, 0x00, 0x09, 0x00, 0x00, 0x00,
    0x02, 0x00, 0x00, 0x00, 0x90, 0xd2, 0xff, 0xff, 0x14, 0x00, 0x00, 0x00,
    0x0d, 0x00, 0x00, 0x00, 0x20, 0x00, 0x00, 0x00, 0xb8, 0x00, 0x00, 0x00,
    0xa0, 0x00, 0x00, 0x00, 0x04, 0x00, 0x00, 0x00, 0x01, 0x00, 0x00, 0x00,
    0x15, 0x00, 0x00, 0x00, 0x01, 0x00, 0x00, 0x00, 0x10, 0x00, 0x00, 0x00,
    0x83, 0x00, 0x00, 0x00, 0x73, 0x65, 0x71, 0x75, 0x65, 0x6e, 0x74, 0x69,
    0x61, 0x6c, 0x2f, 0x63, 0x6f, 0x6e, 0x76, 0x32, 0x64, 0x5f, 0x31, 0x2f,
    0x52, 0x65, 0x6c, 0x75, 0x3b, 0x73, 0x65, 0x71, 0x75, 0x65, 0x6e, 0x74,
    0x69, 0x61, 0x6c, 0x2f, 0x63, 0x6f, 0x6e, 0x76, 0x32, 0x64, 0x5f, 0x31,
    0x2f, 0x42, 0x69, 0x61, 0x73, 0x41, 0x64, 0x64, 0x3b, 0x73, 0x65, 0x71,
    0x75, 0x65, 0x6e, 0x74, 0x69, 0x61, 0x6c, 0x2f, 0x63, 0x6f, 0x6e, 0x76,
    0x32, 0x64, 0x5f, 0x31, 0x2f, 0x43, 0x6f, 0x6e, 0x76, 0x32, 0x44, 0x3b,
    0x73, 0x65, 0x71, 0x75, 0x65, 0x6e, 0x74, 0x69, 0x61, 0x6c, 0x2f, 0x63,
    0x6f, 0x6e, 0x76, 0x32, 0x64, 0x5f, 0x31, 0x2f, 0x42, 0x69, 0x61, 0x73,
    0x41, 0x64, 0x64, 0x2f, 0x52, 0x65, 0x61, 0x64, 0x56, 0x61, 0x72, 0x69,
    0x61, 0x62, 0x6c, 0x65, 0x4f, 0x70, 0x2f, 0x72, 0x65, 0x73, 0x6f, 0x75,
    0x72, 0x63, 0x65, 0x00, 0x04, 0x00, 0x00, 0x00, 0xff, 0xff, 0xff, 0xff,
    0x15, 0x00, 0x00, 0x00, 0x01, 0x00, 0x00, 0x00, 0x10, 0x00, 0x00, 0x00,
    0xfc, 0xd3, 0xff, 0xff, 0x00, 0x00, 0x0e, 0x00, 0x1a, 0x00, 0x08, 0x00,
    0x0c, 0x00, 0x10, 0x00, 0x07, 0x00, 0x14, 0x00, 0x0e, 0x00, 0x00, 0x00,
    0x00, 0x00, 0x00, 0x05, 0x01, 0x00, 0x00, 0x00, 0x3c, 0x00, 0x00, 0x00,
    0x30, 0x00, 0x00, 0x00, 0x14, 0x00, 0x00, 0x00, 0x00, 0x00, 0x0e, 0x00,
    0x18, 0x00, 0x17, 0x00, 0x10, 0x00, 0x0c, 0x00, 0x08, 0x00, 0x04, 0x00,
    0x0e, 0x00, 0x00, 0x00, 0x03, 0x00, 0x00, 0x00, 0x03, 0x00, 0x00, 0x00,
    0x03, 0x00, 0x00, 0x00, 0x03, 0x00, 0x00, 0x00, 0x00, 0x00, 0x00, 0x01,
    0x01, 0x00, 0x00, 0x00, 0x0b, 0x00, 0x00, 0x00, 0x01, 0x00, 0x00, 0x00,
    0x0a, 0x00, 0x00, 0x00, 0x2c, 0xff, 0xff, 0xff, 0x11, 0x00, 0x00, 0x00,
    0x00, 0x00, 0x00, 0x11, 0x01, 0x00, 0x00, 0x00, 0xcc, 0xd3, 0xff, 0xff,
    0x14, 0x00, 0x00, 0x00, 0x0c, 0x00, 0x00, 0x00, 0x20, 0x00, 0x00, 0x00,
    0x58, 0x00, 0x00, 0x00, 0x40, 0x00, 0x00, 0x00, 0x04, 0x00, 0x00, 0x00,
    0x01, 0x00, 0x00, 0x00, 0x15, 0x00, 0x00, 0x00, 0x01, 0x00, 0x00, 0x00,
    0x08, 0x00, 0x00, 0x00, 0x20, 0x00, 0x00, 0x00, 0x73, 0x65, 0x71, 0x75,
    0x65, 0x6e, 0x74, 0x69, 0x61, 0x6c, 0x2f, 0x6d, 0x61, 0x78, 0x5f, 0x70,
    0x6f, 0x6f, 0x6c, 0x69, 0x6e, 0x67, 0x32, 0x64, 0x2f, 0x4d, 0x61, 0x78,
    0x50, 0x6f, 0x6f, 0x6c, 0x00, 0x00, 0x00, 0x00, 0x04, 0x00, 0x00, 0x00,
    0xff, 0xff, 0xff, 0xff, 0x15, 0x00, 0x00, 0x00, 0x01, 0x00, 0x00, 0x00,
    0x08, 0x00, 0x00, 0x00, 0xd8, 0xd4, 0xff, 0xff, 0x00, 0x00, 0x0e, 0x00,
    0x14, 0x00, 0x00, 0x00, 0x08, 0x00, 0x0c, 0x00, 0x07, 0x00, 0x10, 0x00,
    0x0e, 0x00, 0x00, 0x00, 0x00, 0x00, 0x00, 0x01, 0x30, 0x00, 0x00, 0x00,
    0x24, 0x00, 0x00, 0x00, 0x10, 0x00, 0x00, 0x00, 0x0c, 0x00, 0x10, 0x00,
    0x00, 0x00, 0x04, 0x00, 0x08, 0x00, 0x0f, 0x00, 0x0c, 0x00, 0x00, 0x00,
    0x01, 0x00, 0x00, 0x00, 0x01, 0x00, 0x00, 0x00, 0x00, 0x00, 0x00, 0x01,
    0x01, 0x00, 0x00, 0x00, 0x0a, 0x00, 0x00, 0x00, 0x03, 0x00, 0x00, 0x00,
    0x00, 0x00, 0x00, 0x00, 0x08, 0x00, 0x00, 0x00, 0x01, 0x00, 0x00, 0x00,
    0x0c, 0x00, 0x10, 0x00, 0x0b, 0x00, 0x00, 0x00, 0x0c, 0x00, 0x04, 0x00,
    0x0c, 0x00, 0x00, 0x00, 0x03, 0x00, 0x00, 0x00, 0x00, 0x00, 0x00, 0x03,
    0x01, 0x00, 0x00, 0x00, 0xac, 0xd4, 0xff, 0xff, 0x14, 0x00, 0x00, 0x00,
    0x0b, 0x00, 0x00, 0x00, 0x20, 0x00, 0x00, 0x00, 0xb0, 0x00, 0x00, 0x00,
    0x98, 0x00, 0x00, 0x00, 0x04, 0x00, 0x00, 0x00, 0x01, 0x00, 0x00, 0x00,
    0x40, 0x00, 0x00, 0x00, 0x03, 0x00, 0x00, 0x00, 0x08, 0x00, 0x00, 0x00,
    0x7b, 0x00, 0x00, 0x00, 0x73, 0x65, 0x71, 0x75, 0x65, 0x6e, 0x74, 0x69,
    0x61, 0x6c, 0x2f, 0x63, 0x6f, 0x6e, 0x76, 0x32, 0x64, 0x2f, 0x52, 0x65,
    0x6c, 0x75, 0x3b, 0x73, 0x65, 0x71, 0x75, 0x65, 0x6e, 0x74, 0x69, 0x61,
    0x6c, 0x2f, 0x63, 0x6f, 0x6e, 0x76, 0x32, 0x64, 0x2f, 0x42, 0x69, 0x61,
    0x73, 0x41, 0x64, 0x64, 0x3b, 0x73, 0x65, 0x71, 0x75, 0x65, 0x6e, 0x74,
    0x69, 0x61, 0x6c, 0x2f, 0x63, 0x6f, 0x6e, 0x76, 0x32, 0x64, 0x2f, 0x43,
    0x6f, 0x6e, 0x76, 0x32, 0x44, 0x3b, 0x73, 0x65, 0x71, 0x75, 0x65, 0x6e,
    0x74, 0x69, 0x61, 0x6c, 0x2f, 0x63, 0x6f, 0x6e, 0x76, 0x32, 0x64, 0x2f,
    0x42, 0x69, 0x61, 0x73, 0x41, 0x64, 0x64, 0x2f, 0x52, 0x65, 0x61, 0x64,
    0x56, 0x61, 0x72, 0x69, 0x61, 0x62, 0x6c, 0x65, 0x4f, 0x70, 0x2f, 0x72,
    0x65, 0x73, 0x6f, 0x75, 0x72, 0x63, 0x65, 0x00, 0x04, 0x00, 0x00, 0x00,
    0xff, 0xff, 0xff, 0xff, 0x40, 0x00, 0x00, 0x00, 0x03, 0x00, 0x00, 0x00,
    0x08, 0x00, 0x00, 0x00, 0x00, 0xd5, 0xff, 0xff, 0x0a, 0xd6, 0xff, 0xff,
    0x04, 0x00, 0x00, 0x00, 0x00, 0x08, 0x00, 0x00, 0xd8, 0xbe, 0x1f, 0xbe,
    0x41, 0x8c, 0xe0, 0xbe, 0x67, 0x76, 0x4b, 0xbe, 0x9c, 0xc4, 0xe6, 0xbd,
    0x71, 0x9b, 0xab, 0xbe, 0x17, 0xdc, 0x90, 0x3d, 0xbd, 0xee, 0xcd, 0xbe,
    0x72, 0x9b, 0x16, 0xbe, 0x22, 0x64, 0x62, 0xbd, 0x3a, 0x9a, 0xa3, 0xbc,
    0x22, 0x2b, 0x91, 0x3e, 0x17, 0xfd, 0xe4, 0xbd, 0xdf, 0xbf, 0x52, 0xbe,
    0x48, 0x21, 0xdb, 0xbc, 0x63, 0xd5, 0x00, 0xbe, 0x2d, 0x4f, 0xf2, 0xbd,
    0xf7, 0x3b, 0x5f, 0x3e, 0x63, 0xfd, 0x44, 0x3f, 0x2d, 0xf9, 0x6e, 0x3e,
    0xba, 0xb5, 0xa4, 0xbd, 0xa0, 0x04, 0x63, 0xbd, 0x7c, 0x16, 0x87, 0xbc,
    0x95, 0x2a, 0xca, 0x3d, 0x43, 0xd6, 0x70, 0xbd, 0x82, 0x59, 0x54, 0x3c,
    0x23, 0x8d, 0x34, 0xbc, 0x35, 0x3a, 0x8a, 0x3e, 0x1e, 0x06, 0x57, 0xbd,
    0x8c, 0xb0, 0x7c, 0x3d, 0xae, 0x42, 0xf0, 0xbd, 0xed, 0x4e, 0x8a, 0xbc,
    0xc8, 0xb2, 0x9a, 0x3d, 0x38, 0x15, 0x9e, 0x3d, 0x5e, 0xec, 0x3a, 0x3d,
    0x70, 0x9e, 0x06, 0x3e, 0xe5, 0x76, 0xbf, 0xbe, 0xc5, 0x52, 0x31, 0x3e,
    0x4d, 0xe5, 0x2b, 0x3e, 0x41, 0xd6, 0x12, 0x3f, 0xf9, 0xb9, 0x6b, 0x3e,
    0x5c, 0x0b, 0x2d, 0xbe, 0x70, 0xae, 0x8d, 0x3e, 0x8b, 0x40, 0x85, 0x3d,
    0xa6, 0x68, 0xd3, 0xbe, 0x31, 0x68, 0xb4, 0x3d, 0x11, 0x86, 0x43, 0xbe,
    0x84, 0xf6, 0x52, 0xbe, 0x05, 0x18, 0x79, 0xbd, 0xc2, 0x54, 0xc0, 0x3d,
    0x95, 0xb7, 0xff, 0x3d, 0x62, 0xf1, 0x1b, 0x3e, 0xb7, 0x66, 0x6d, 0xbe,
    0x90, 0xbf, 0x3d, 0xbd, 0x19, 0x60, 0x72, 0xbe, 0x19, 0x27, 0x84, 0xbe,
    0x5f, 0x13, 0x47, 0xbe, 0xfb, 0x57, 0x97, 0x3b, 0xb6, 0x68, 0x37, 0xbe,
    0x8a, 0x89, 0x8b, 0x3e, 0x69, 0xd9, 0x0f, 0xbe, 0x4c, 0xfe, 0x66, 0xbe,
    0x7f, 0xb6, 0x4e, 0xbe, 0xdc, 0x00, 0xd5, 0xbe, 0xfb, 0x57, 0x7e, 0xbe,
    0xa8, 0xb6, 0x0f, 0x3d, 0xc5, 0x96, 0xe6, 0x3e, 0x6e, 0x07, 0x7a, 0xbc,
    0xa7, 0x53, 0xfa, 0x3e, 0xc4, 0x1c, 0x43, 0xbd, 0x73, 0x14, 0xc0, 0xbe,
    0x3a, 0xf0, 0x4b, 0xbe, 0x5a, 0xa7, 0x18, 0x3e, 0x88, 0x12, 0xe8, 0xbd,
    0x2f, 0xf0, 0x2e, 0xbd, 0xbd, 0x26, 0xeb, 0x3d, 0x4b, 0x05, 0x4d, 0xbe,
    0xc4, 0x35, 0x12, 0xbe, 0x31, 0x67, 0xd7, 0xbe, 0xf3, 0x0b, 0x37, 0xbe,
    0xd6, 0xe5, 0x23, 0xbe, 0xd0, 0x8b, 0xb7, 0xbd, 0x94, 0x2a, 0xc5, 0x3d,
    0x0d, 0x6d, 0x8f, 0xbd, 0xf0, 0xf8, 0xd4, 0xbd, 0x9d, 0xf5, 0x59, 0x3d,
    0xc8, 0xf9, 0x66, 0xbe, 0x98, 0x00, 0x22, 0x3b, 0x29, 0x0a, 0xf8, 0xbd,
    0x61, 0x19, 0xad, 0xbd, 0xc2, 0xf6, 0xd5, 0x3e, 0x33, 0x0f, 0x22, 0x3e,
    0x8b, 0x64, 0x1d, 0xbe, 0x93, 0xda, 0x95, 0xbc, 0x32, 0x7b, 0xc5, 0xbc,
    0x59, 0xfe, 0xdd, 0x3d, 0xad, 0x77, 0x8a, 0xbd, 0x4e, 0x52, 0xae, 0xbe,
    0x8f, 0x9c, 0x88, 0x3d, 0x7f, 0x5f, 0xcb, 0x3e, 0x3c, 0x8d, 0x2e, 0xbe,
    0x6c, 0xe6, 0x4a, 0x3e, 0x6f, 0xf0, 0x60, 0xbd, 0x8d, 0x42, 0xc5, 0x3e,
    0xda, 0x91, 0xc9, 0xbc, 0x8f, 0x2a, 0xff, 0xbe, 0x48, 0xe1, 0x50, 0xbe,
    0x66, 0xd5, 0x9c, 0xbd, 0x08, 0x0e, 0xe5, 0xbe, 0x84, 0xc1, 0x61, 0xbd,
    0xee, 0x52, 0x03, 0xbc, 0x91, 0xbd, 0x49, 0xbc, 0x65, 0x45, 0x8c, 0xbd,
    0x5c, 0xda, 0x1d, 0xbe, 0x84, 0xd9, 0x16, 0x3e, 0x0f, 0x4e, 0x07, 0xbe,
    0xdd, 0xd7, 0x07, 0xbe, 0x05, 0xa4, 0xf8, 0x3c, 0x80, 0xa5, 0xad, 0x3d,
    0x38, 0x57, 0x35, 0xbd, 0x2d, 0x33, 0xf0, 0xbd, 0xb4, 0xb1, 0x27, 0xbe,
    0x22, 0x01, 0x2e, 0x3e, 0xcc, 0xa6, 0x0a, 0xbe, 0x01, 0x63, 0xf9, 0xbe,
    0xbc, 0xca, 0xdd, 0x3b, 0x0b, 0x14, 0xb3, 0x3d, 0xa6, 0xa6, 0x63, 0x3d,
    0x27, 0xbe, 0x55, 0xbd, 0x9f, 0x10, 0x37, 0xbe, 0x48, 0xe0, 0x52, 0xbd,
    0x5d, 0x57, 0x05, 0xbe, 0x53, 0x7c, 0x62, 0xbe, 0x0c, 0x86, 0x48, 0xbe,
    0x07, 0xe7, 0xa3, 0xbc, 0xea, 0xd3, 0xd3, 0xbd, 0xaf, 0xfe, 0xbb, 0xbd,
    0x23, 0x26, 0xf7, 0xbd, 0xd7, 0x19, 0x1c, 0x3d, 0x09, 0xa9, 0xd5, 0x3d,
    0x7a, 0xb8, 0xd2, 0xbd, 0x00, 0x7c, 0x5d, 0xbd, 0xbd, 0x01, 0x10, 0x3e,
    0xb5, 0xe1, 0x14, 0x3e, 0x15, 0xec, 0x6b, 0x3d, 0x65, 0x11, 0x04, 0xbf,
    0xf2, 0xac, 0xa1, 0x3e, 0xc3, 0x3c, 0x59, 0x3e, 0x72, 0xba, 0x4c, 0xbf,
    0x8e, 0xfb, 0xc9, 0x3d, 0xa7, 0x38, 0xac, 0xbd, 0xc6, 0x16, 0x51, 0x3e,
    0x37, 0x39, 0x97, 0xbc, 0x66, 0xe2, 0x2d, 0xbe, 0xc3, 0x21, 0x36, 0xbd,
    0x30, 0x1a, 0x5e, 0x3e, 0xd5, 0x3e, 0x90, 0xbe, 0x94, 0x03, 0xc3, 0xbd,
    0xd4, 0x68, 0x74, 0xbe, 0x1d, 0x52, 0xd8, 0xbd, 0xa1, 0x05, 0x37, 0xbe,
    0x3b, 0x3a, 0x23, 0x3e, 0x08, 0xcf, 0xc8, 0xbd, 0xe6, 0x8f, 0x02, 0xbe,
    0xc5, 0xf8, 0x3c, 0x3e, 0x0d, 0x53, 0x82, 0xbe, 0x1c, 0xe8, 0x3f, 0x3e,
    0xe7, 0x76, 0xfe, 0x3c, 0x09, 0xfa, 0x6f, 0xbe, 0xd1, 0x31, 0xf9, 0x3d,
    0x55, 0x80, 0x79, 0xbe, 0x74, 0x98, 0x9b, 0x3e, 0x9d, 0xe1, 0xd9, 0x3c,
    0xed, 0xc2, 0x7c, 0xbe, 0x24, 0x00, 0x6e, 0x3d, 0x42, 0xd9, 0x27, 0xbd,
    0xd5, 0xde, 0x86, 0xbe, 0xae, 0x1e, 0x6c, 0x3e, 0x86, 0x86, 0x5f, 0xbd,
    0x5e, 0x2f, 0x9b, 0xbc, 0x8a, 0x50, 0x71, 0x3e, 0xb4, 0x60, 0x33, 0xbe,
    0x85, 0x15, 0xd9, 0xbd, 0xb7, 0xd4, 0x17, 0x3e, 0xa8, 0x0f, 0x87, 0xbe,
    0x04, 0xea, 0x49, 0x3e, 0x46, 0x26, 0x9d, 0x3d, 0xad, 0xa1, 0x8e, 0x3e,
    0xb2, 0x4a, 0xce, 0x3d, 0x5c, 0xa2, 0x0b, 0xbe, 0x63, 0x01, 0xe7, 0x3d,
    0x8e, 0x98, 0x25, 0x3e, 0xcf, 0x49, 0x53, 0xbe, 0x5f, 0x43, 0x27, 0xbe,
    0xb2, 0xb4, 0xf0, 0xbe, 0xb6, 0xa4, 0x46, 0x3e, 0xc9, 0x18, 0x84, 0xbd,
    0x17, 0x61, 0x78, 0xbe, 0xa4, 0xda, 0x15, 0x3d, 0xf3, 0xec, 0x1c, 0xbf,
    0xd3, 0x63, 0xe3, 0xbd, 0x50, 0x4a, 0xa4, 0xbc, 0xe1, 0x31, 0x74, 0xbd,
    0x54, 0x19, 0x09, 0x3f, 0x6e, 0x9a, 0x63, 0xbd, 0x51, 0x76, 0xbc, 0xbe,
    0x68, 0x63, 0x3a, 0xbd, 0xd3, 0xd3, 0x2d, 0xbf, 0x6c, 0xfb, 0x5d, 0xbe,
    0xec, 0x5a, 0x22, 0x3d, 0xa4, 0xb8, 0x26, 0x3f, 0x31, 0x0a, 0xf1, 0xbe,
    0x5e, 0xa2, 0xa8, 0xbc, 0x7f, 0x28, 0x6f, 0xbe, 0x15, 0x26, 0x4d, 0x3d,
    0x99, 0xae, 0xc0, 0xbe, 0x78, 0x3b, 0xd2, 0xbd, 0xfc, 0xd4, 0xee, 0x3c,
    0x62, 0xe0, 0x08, 0x3e, 0xc9, 0x5a, 0xf8, 0x3d, 0xc3, 0x2e, 0x70, 0xbd,
    0x8f, 0xc7, 0x06, 0x3e, 0x9d, 0xa3, 0x00, 0x3e, 0xcb, 0xf7, 0xe6, 0x3e,
    0x9d, 0xa8, 0x2b, 0x3e, 0xd1, 0xb0, 0x19, 0xbe, 0xc8, 0xb3, 0x16, 0xbf,
    0xf6, 0x8c, 0x54, 0xbe, 0xcd, 0x0f, 0xe9, 0xbc, 0xe2, 0x20, 0x6e, 0xbe,
    0x89, 0xba, 0xca, 0xbd, 0xe2, 0x78, 0x1a, 0xbe, 0xda, 0xce, 0x22, 0xbe,
    0x01, 0x49, 0xec, 0xbd, 0xf3, 0xfb, 0xef, 0x3c, 0x22, 0xda, 0x95, 0xbe,
    0xc8, 0x69, 0x1d, 0x3e, 0x08, 0x70, 0xdf, 0xbd, 0x9d, 0x1f, 0x43, 0x3c,
    0x6f, 0xf6, 0x1c, 0xbe, 0x6d, 0x74, 0x44, 0x3b, 0xf4, 0x9a, 0x16, 0xbe,
    0xb0, 0x2d, 0x86, 0x3e, 0xa1, 0xca, 0x47, 0x3d, 0x69, 0xee, 0xc2, 0xbe,
    0x5a, 0x2f, 0xf4, 0xba, 0x61, 0x8a, 0x11, 0xbb, 0x90, 0xf5, 0xf3, 0x3b,
    0xa5, 0x13, 0x66, 0x3d, 0x0f, 0xa6, 0x3e, 0xbe, 0x51, 0xab, 0x0c, 0x3f,
    0x0e, 0x28, 0x8a, 0x3c, 0xc6, 0xc4, 0xe9, 0xbe, 0xec, 0x0b, 0xbf, 0x3d,
    0x20, 0xbe, 0xa3, 0xbd, 0x36, 0x42, 0xfe, 0x3d, 0x5f, 0x29, 0x3e, 0x3b,
    0x6c, 0x16, 0x05, 0xbe, 0xb6, 0x33, 0x84, 0xbe, 0x8a, 0xc2, 0xd7, 0xbe,
    0x57, 0x18, 0x74, 0xbd, 0xca, 0xad, 0x15, 0xbe, 0x64, 0xb6, 0x15, 0x3e,
    0xb1, 0x17, 0xd7, 0xbd, 0x80, 0xaa, 0xba, 0xbd, 0x54, 0x37, 0x5a, 0xbd,
    0x8f, 0x3c, 0xa2, 0xbe, 0xe4, 0x28, 0x92, 0xbc, 0xb0, 0x0e, 0x49, 0xbd,
    0x40, 0x7f, 0x86, 0xbe, 0x01, 0xf1, 0x45, 0xbd, 0x6e, 0x8d, 0x30, 0xbe,
    0xe8, 0x6e, 0xf0, 0xbd, 0x09, 0x6a, 0xc8, 0xbc, 0xb7, 0xb8, 0xd2, 0xbd,
    0xd1, 0xbf, 0xd8, 0x3d, 0x02, 0x1c, 0xe0, 0x3c, 0xdc, 0x7a, 0xc9, 0xbd,
    0x24, 0x64, 0x85, 0xbd, 0x24, 0x59, 0x82, 0xbe, 0x8e, 0x85, 0x22, 0xbe,
    0x2f, 0x75, 0x43, 0x3e, 0x04, 0x5e, 0x8b, 0x3e, 0x0a, 0xbb, 0x74, 0x3e,
    0xdb, 0x8f, 0x1b, 0xbd, 0xb7, 0x93, 0x18, 0xbe, 0xfc, 0xec, 0xd8, 0xbd,
    0x20, 0x88, 0x41, 0xbe, 0x1a, 0x45, 0x24, 0xbe, 0x85, 0x57, 0x64, 0xbe,
    0xd7, 0xa8, 0x0e, 0x3d, 0x6a, 0x5b, 0x0e, 0xbe, 0x5a, 0x71, 0x60, 0xbe,
    0x10, 0x2c, 0x0c, 0xbe, 0x23, 0x6f, 0x15, 0xbd, 0x95, 0xee, 0xe1, 0xbd,
    0xd8, 0xef, 0xb3, 0xbd, 0x67, 0x39, 0x38, 0xbe, 0xa2, 0xf4, 0x4d, 0x3e,
    0x12, 0x47, 0xf5, 0xbd, 0xd0, 0xee, 0x37, 0xbe, 0x7e, 0xa0, 0xbc, 0xbd,
    0x6d, 0xf7, 0x89, 0xbd, 0x43, 0x1d, 0xb5, 0x3d, 0x3b, 0x28, 0x8a, 0xbd,
    0x9e, 0x45, 0x52, 0xbe, 0xc5, 0xc6, 0xfb, 0xbc, 0xe5, 0xd6, 0x6d, 0x3e,
    0xce, 0x54, 0xca, 0x3d, 0x48, 0xb0, 0xfb, 0xbc, 0x3d, 0x2e, 0x8e, 0xbd,
    0x0a, 0x33, 0x8a, 0xbd, 0x51, 0xa2, 0x1c, 0x3d, 0xc3, 0xdb, 0x91, 0x3e,
    0x47, 0x74, 0x0f, 0x3e, 0xf4, 0xc8, 0xec, 0x3d, 0x75, 0x50, 0x7a, 0x3e,
    0x25, 0x42, 0x49, 0x3c, 0x84, 0xc9, 0xd5, 0x3c, 0xa7, 0x83, 0x08, 0x3e,
    0x1b, 0x75, 0xfc, 0x3d, 0xea, 0xb5, 0xbb, 0xbd, 0xe0, 0xb7, 0x87, 0x3c,
    0xd7, 0x53, 0x87, 0x3f, 0x91, 0x85, 0x75, 0xbd, 0xbf, 0xcd, 0x31, 0x3d,
    0x3e, 0x7e, 0x90, 0xbd, 0x4b, 0x85, 0xe7, 0x3d, 0x2f, 0x55, 0xc9, 0x3c,
    0x8b, 0x02, 0x8b, 0xbd, 0x32, 0xc7, 0x8c, 0xbe, 0x45, 0x8c, 0x10, 0x3d,
    0x7c, 0xb1, 0x01, 0xbd, 0x36, 0x05, 0x39, 0x3d, 0x08, 0x8f, 0x8a, 0xbd,
    0x85, 0xba, 0x9a, 0xbc, 0x59, 0x18, 0x81, 0xbc, 0xa3, 0x5c, 0xd7, 0xbd,
    0x7e, 0x9e, 0x8a, 0xbe, 0x60, 0xe0, 0xd7, 0xbd, 0x74, 0x3d, 0x0b, 0xbd,
    0x87, 0x7a, 0x30, 0xbd, 0x09, 0x4e, 0xf9, 0xbc, 0xd2, 0x61, 0x21, 0xbe,
    0x0b, 0xb2, 0xee, 0x3c, 0x72, 0x9f, 0x60, 0xbd, 0xdb, 0x7b, 0x88, 0xbe,
    0x15, 0xd8, 0x9e, 0xbe, 0x47, 0xb8, 0x1e, 0x3d, 0x9c, 0xff, 0xf1, 0xbc,
    0xc0, 0x54, 0xd9, 0x3d, 0x99, 0x59, 0x88, 0xbe, 0x47, 0xa5, 0xb9, 0x3d,
    0x55, 0x79, 0x13, 0x3d, 0x01, 0x72, 0xb6, 0x3d, 0xca, 0x18, 0xb1, 0x3e,
    0x03, 0x1c, 0xb6, 0x3d, 0x6b, 0x72, 0x6d, 0xbe, 0xf5, 0x65, 0x03, 0xbe,
    0x82, 0x54, 0x7f, 0x3d, 0x8e, 0xa3, 0x09, 0xbf, 0x1a, 0x07, 0x5e, 0x3d,
    0x4f, 0xbd, 0x59, 0x3e, 0xb1, 0x24, 0x85, 0x3d, 0xb1, 0xea, 0x82, 0x3d,
    0xd1, 0xf2, 0xa2, 0xbe, 0xe7, 0x26, 0x0c, 0xbe, 0x02, 0xf1, 0x20, 0x3e,
    0x3d, 0xad, 0x01, 0xbf, 0x42, 0xb4, 0x83, 0xbd, 0x1c, 0xf2, 0x68, 0x3d,
    0xa4, 0x2a, 0xde, 0x3e, 0x7d, 0xe0, 0x6a, 0xbd, 0x19, 0x60, 0x44, 0xbe,
    0x03, 0x49, 0x34, 0xbd, 0x8d, 0xab, 0x96, 0xbd, 0x87, 0xbd, 0xd3, 0xbe,
    0x1a, 0xac, 0x29, 0xbd, 0x32, 0x5d, 0x7a, 0x3e, 0x8d, 0x7f, 0x40, 0x3e,
    0x99, 0xe9, 0x87, 0xbd, 0xa6, 0x05, 0x3e, 0xbe, 0x92, 0xd1, 0xb9, 0xbd,
    0x0c, 0xee, 0x82, 0x3d, 0x06, 0x96, 0xde, 0xbe, 0xe3, 0x16, 0x42, 0xbe,
    0xc0, 0xd3, 0x0b, 0xbe, 0xa0, 0xe8, 0x87, 0xbe, 0xb1, 0x0d, 0x2b, 0xbe,
    0x04, 0xda, 0x98, 0xbc, 0xd1, 0x0b, 0xab, 0xbe, 0x74, 0x59, 0xa0, 0xbd,
    0x20, 0x25, 0x5c, 0xbd, 0xf2, 0x81, 0x89, 0xbe, 0x71, 0x00, 0x17, 0xbd,
    0xcd, 0x57, 0x59, 0x3e, 0x12, 0x25, 0x53, 0xbe, 0xdb, 0x1c, 0xd4, 0xbc,
    0xd0, 0x2e, 0xc0, 0xbe, 0x3d, 0x6e, 0x50, 0x3e, 0xa4, 0x77, 0x55, 0x3d,
    0x7c, 0x93, 0xa8, 0xbd, 0x69, 0x99, 0xb7, 0x3e, 0x10, 0xcd, 0xf3, 0x3e,
    0xd8, 0x85, 0x25, 0xbd, 0x91, 0x5d, 0xe7, 0x3d, 0x55, 0x1d, 0x8f, 0xbe,
    0x73, 0xff, 0x16, 0x3e, 0xc8, 0xd1, 0x0c, 0x3e, 0x68, 0x20, 0xf6, 0x3d,
    0x2d, 0x2a, 0x79, 0x3e, 0x1f, 0xb9, 0x92, 0x3e, 0x32, 0x90, 0xef, 0x3d,
    0x9d, 0xcf, 0xa1, 0x3d, 0x55, 0x34, 0x64, 0xbe, 0x60, 0xf3, 0xc0, 0xbd,
    0x9e, 0xf7, 0xa6, 0x3c, 0x79, 0xfd, 0x45, 0x3f, 0xf6, 0x6a, 0x92, 0x3d,
    0xd4, 0x1d, 0xa6, 0x3e, 0x00, 0x2d, 0x9d, 0x3e, 0x1a, 0x4d, 0x6e, 0x3d,
    0xc1, 0x15, 0xc8, 0xbe, 0x96, 0x20, 0x63, 0xbe, 0x20, 0xa7, 0x93, 0x3c,
    0x87, 0x2c, 0x58, 0xbd, 0x85, 0xad, 0x89, 0x3d, 0x62, 0xc8, 0x9a, 0xbe,
    0xc1, 0x90, 0x1e, 0xbe, 0x7c, 0x0c, 0x19, 0xbe, 0x0b, 0x43, 0x85, 0xbe,
    0x16, 0x9c, 0xb7, 0xbd, 0x2d, 0x36, 0x7d, 0xbd, 0x8d, 0x74, 0x44, 0xbe,
    0x5d, 0x5e, 0xb7, 0x3e, 0xdd, 0xa1, 0x70, 0xbd, 0x9c, 0xd6, 0x80, 0xbe,
    0x57, 0xc5, 0x6d, 0xbc, 0xd4, 0x55, 0xc7, 0xbd, 0x5d, 0x12, 0xf8, 0x3c,
    0xa4, 0x7f, 0xe5, 0xba, 0x9d, 0x4a, 0xd9, 0xbe, 0x8a, 0xd9, 0x6c, 0xbe,
    0xb2, 0x4a, 0xab, 0xbc, 0xd7, 0x67, 0xac, 0xbe, 0x78, 0xf2, 0x2f, 0xbb,
    0xfa, 0xd6, 0x79, 0x3d, 0x6f, 0x83, 0x78, 0x3e, 0xa8, 0xcd, 0x02, 0xbc,
    0xf8, 0x61, 0x62, 0x3d, 0xd1, 0x54, 0xa7, 0xbe, 0x21, 0xe4, 0x3f, 0xbe,
    0xaf, 0x05, 0x47, 0x3e, 0x75, 0xe7, 0x2b, 0x3e, 0xdb, 0x0c, 0xf7, 0x3d,
    0x3d, 0x70, 0x05, 0xbe, 0x8f, 0xb7, 0xae, 0x3c, 0x23, 0xa6, 0xcd, 0x3d,
    0x63, 0x50, 0x01, 0xbe, 0x08, 0xb6, 0x27, 0xbe, 0x6c, 0xc1, 0xbf, 0xbd,
    0x72, 0x14, 0x2a, 0x3e, 0xe8, 0x2d, 0x09, 0x3e, 0x52, 0xe8, 0xce, 0x3c,
    0x73, 0xc6, 0x23, 0x3c, 0xa5, 0xb3, 0x6f, 0xbd, 0x8a, 0x64, 0x62, 0xbe,
    0x85, 0xa0, 0x2e, 0xbe, 0x13, 0xf2, 0xed, 0x3c, 0x29, 0x2d, 0xc7, 0xbd,
    0xa3, 0x91, 0x6b, 0xbd, 0x44, 0xdd, 0x9f, 0xbd, 0x51, 0x8e, 0xe3, 0x3c,
    0xc8, 0x86, 0xbd, 0x3d, 0x36, 0x8a, 0x51, 0xbe, 0x19, 0x6f, 0x23, 0xbe,
    0x94, 0xe2, 0xa4, 0x3c, 0x77, 0x53, 0xea, 0x3d, 0xef, 0xd8, 0x1f, 0x3e,
    0x18, 0x38, 0xd7, 0xbc, 0x59, 0x15, 0xec, 0xbd, 0x62, 0x0a, 0xf3, 0xbd,
    0xb6, 0xd2, 0x09, 0xbf, 0x4c, 0xcc, 0x88, 0xbd, 0x93, 0x0f, 0xd3, 0xbc,
    0xb2, 0xb7, 0x02, 0xbd, 0xd4, 0x61, 0x7a, 0xbe, 0x50, 0x84, 0x8e, 0xbe,
    0x42, 0x29, 0x7d, 0x3e, 0xce, 0x1b, 0x28, 0x3f, 0x23, 0xb9, 0xa1, 0x3c,
    0x54, 0x08, 0x90, 0x3e, 0xc6, 0xbf, 0x81, 0xbd, 0x15, 0x91, 0x1a, 0xbe,
    0x40, 0xde, 0x75, 0xbe, 0x82, 0x4a, 0x58, 0xbe, 0x93, 0xdc, 0x08, 0xbe,
    0xcc, 0x20, 0xa2, 0xbd, 0x1c, 0xf2, 0xc4, 0x3e, 0x1e, 0xd5, 0x97, 0xbe,
    0x41, 0x4a, 0xcb, 0xbb, 0x68, 0x40, 0x50, 0xbd, 0xf4, 0xba, 0x6e, 0xbe,
    0xb3, 0xb9, 0x0c, 0x3d, 0x76, 0xb0, 0xff, 0xbd, 0x56, 0x92, 0xad, 0xbd,
    0x59, 0xb6, 0x98, 0x3e, 0x85, 0x31, 0xe8, 0xbe, 0xba, 0x59, 0xbf, 0xbd,
    0x6f, 0x3f, 0x8b, 0xbd, 0xc8, 0x7a, 0xc4, 0xbd, 0xa7, 0xd6, 0x7f, 0x3e,
    0x4b, 0x0d, 0xdb, 0xbd, 0xe2, 0xdd, 0xff, 0xff, 0x10, 0x00, 0x00, 0x00,
    0x0a, 0x00, 0x00, 0x00, 0x1c, 0x00, 0x00, 0x00, 0x38, 0x00, 0x00, 0x00,
    0x04, 0x00, 0x00, 0x00, 0x10, 0x00, 0x00, 0x00, 0x04, 0x00, 0x00, 0x00,
    0x01, 0x00, 0x00, 0x00, 0x08, 0x00, 0x00, 0x00, 0x1a, 0x00, 0x00, 0x00,
    0x73, 0x65, 0x71, 0x75, 0x65, 0x6e, 0x74, 0x69, 0x61, 0x6c, 0x2f, 0x63,
    0x6f, 0x6e, 0x76, 0x32, 0x64, 0x5f, 0x31, 0x2f, 0x43, 0x6f, 0x6e, 0x76,
    0x32, 0x44, 0x00, 0x00, 0x58, 0xdd, 0xff, 0xff, 0x62, 0xde, 0xff, 0xff,
    0x04, 0x00, 0x00, 0x00, 0x80, 0x01, 0x00, 0x00, 0xd3, 0x98, 0x6d, 0x3e,
    0x08, 0xe0, 0x1d, 0x3c, 0x5b, 0x03, 0x40, 0xbe, 0xc8, 0x97, 0xad, 0x3e,
    0x04, 0x09, 0x62, 0x3e, 0x80, 0xee, 0xe3, 0x3d, 0x33, 0xb9, 0x9d, 0xbc,
    0xaa, 0xb1, 0x10, 0x3e, 0x10, 0x6e, 0x2c, 0x3e, 0x37, 0x84, 0x5e, 0xbe,
    0x3c, 0xc5, 0x51, 0xbe, 0xed, 0x45, 0xea, 0xbc, 0xb1, 0xde, 0x50, 0x3e,
    0xb8, 0xa9, 0xd7, 0x3e, 0x10, 0x96, 0xef, 0xbe, 0xb6, 0xde, 0x0d, 0x3e,
    0xff, 0xec, 0x8d, 0xbc, 0xd8, 0x09, 0x44, 0x3e, 0xd2, 0x58, 0x82, 0xbe,
    0x36, 0x5d, 0x9d, 0xbe, 0xbb, 0xb1, 0x4d, 0x3e, 0xf8, 0x1b, 0x1b, 0xbe,
    0xc5, 0x24, 0x1d, 0xbe, 0x96, 0x92, 0x51, 0x3c, 0x41, 0xb5, 0x2d, 0xbd,
    0x2c, 0x3e, 0x8d, 0xbc, 0xa2, 0x58, 0x42, 0x3c, 0xa9, 0xe0, 0xc3, 0xbe,
    0x65, 0x1a, 0xda, 0xbe, 0xee, 0xb4, 0xd1, 0x3d, 0x3c, 0xc8, 0xd0, 0x3d,
    0x10, 0xa9, 0xe8, 0x3d, 0x19, 0xbd, 0x8b, 0xbe, 0xef, 0x50, 0xb9, 0x3e,
    0x24, 0x7e, 0xbd, 0x3e, 0x84, 0xd9, 0x0f, 0x3e, 0x9e, 0xf0, 0x69, 0x3e,
    0x05, 0x48, 0x93, 0x3d, 0x9a, 0x34, 0x57, 0x3e, 0xfb, 0xa9, 0xe2, 0x3d,
    0x0b, 0xb8, 0x6c, 0xbe, 0x2a, 0x6b, 0x16, 0xbe, 0xcc, 0x6a, 0x83, 0x3e,
    0xbe, 0x3c, 0x7e, 0x3e, 0xd7, 0x7d, 0x80, 0xbe, 0xc9, 0xba, 0xa3, 0xbd,
    0x05, 0x21, 0xc3, 0x3d, 0x6d, 0xf1, 0x62, 0x3d, 0x89, 0x14, 0x6a, 0x3c,
    0x9e, 0x67, 0x23, 0xbe, 0x17, 0x5c, 0x6e, 0x3d, 0x85, 0x8c, 0x1a, 0xbd,
    0x29, 0x74, 0xcf, 0xbd, 0x69, 0xbe, 0xfd, 0x3d, 0xa3, 0xf4, 0x99, 0xbd,
    0x48, 0x98, 0x17, 0xbb, 0x7a, 0x09, 0x6f, 0x3d, 0xa4, 0xf2, 0x3e, 0xbd,
    0x7d, 0x12, 0x12, 0x3d, 0xb2, 0x52, 0xb3, 0xbc, 0xbc, 0x3d, 0xa9, 0x3c,
    0x14, 0x5f, 0xc0, 0x3d, 0x42, 0xea, 0x3f, 0xbe, 0xaa, 0x70, 0x92, 0xbd,
    0xc8, 0xe2, 0xa7, 0x3d, 0x9e, 0xa8, 0x86, 0xbe, 0x9f, 0x5f, 0x05, 0x3d,
    0x5f, 0xf6, 0xe6, 0x3d, 0xdf, 0xcf, 0xe1, 0xbc, 0xbf, 0xa9, 0x96, 0x3d,
    0x30, 0xbd, 0x41, 0x3c, 0xb8, 0xae, 0x20, 0xbe, 0x79, 0x08, 0x9c, 0x3d,
    0x00, 0xde, 0xd3, 0x3d, 0x0b, 0xa9, 0x69, 0xbe, 0x70, 0x0e, 0x25, 0xbe,
    0x5a, 0x86, 0x27, 0x3e, 0x5d, 0x53, 0x08, 0xbe, 0x96, 0xd1, 0x06, 0x3d,
    0x90, 0x4f, 0x5c, 0xbe, 0x60, 0x94, 0x0a, 0x3d, 0x47, 0xab, 0x32, 0x3c,
    0xef, 0x81, 0x39, 0xbe, 0xfc, 0xb9, 0xe5, 0x3d, 0x29, 0x97, 0xcd, 0xbd,
    0xe2, 0x06, 0x51, 0x3c, 0xfb, 0x63, 0x40, 0x3d, 0x81, 0x87, 0xb8, 0xbd,
    0x20, 0xc5, 0x7d, 0x3c, 0xec, 0x3f, 0x10, 0x3c, 0x9e, 0x68, 0x8b, 0xbd,
    0xd9, 0xc9, 0x41, 0x3d, 0x3d, 0xae, 0x73, 0xbc, 0x7c, 0x77, 0x95, 0xbd,
    0x34, 0x70, 0x72, 0x3d, 0x85, 0x51, 0x8d, 0xba, 0xba, 0xdf, 0xff, 0xff,
    0x10, 0x00, 0x00, 0x00, 0x09, 0x00, 0x00, 0x00, 0x1c, 0x00, 0x00, 0x00,
    0x38, 0x00, 0x00, 0x00, 0x04, 0x00, 0x00, 0x00, 0x08, 0x00, 0x00, 0x00,
    0x04, 0x00, 0x00, 0x00, 0x03, 0x00, 0x00, 0x00, 0x01, 0x00, 0x00, 0x00,
    0x18, 0x00, 0x00, 0x00, 0x73, 0x65, 0x71, 0x75, 0x65, 0x6e, 0x74, 0x69,
    0x61, 0x6c, 0x2f, 0x63, 0x6f, 0x6e, 0x76, 0x32, 0x64, 0x2f, 0x43, 0x6f,
    0x6e, 0x76, 0x32, 0x44, 0x00, 0x00, 0x00, 0x00, 0x30, 0xdf, 0xff, 0xff,
    0x3a, 0xe0, 0xff, 0xff, 0x04, 0x00, 0x00, 0x00, 0x00, 0x01, 0x00, 0x00,
    0xb5, 0xcd, 0x17, 0xbe, 0xe9, 0x3c, 0x96, 0xbe, 0x8a, 0xa5, 0x2d, 0x3e,
    0x6d, 0xbd, 0xc3, 0x3e, 0xbf, 0xe0, 0x84, 0x3d, 0x1b, 0xd8, 0xc4, 0xbd,
    0x5c, 0x11, 0x13, 0xbe, 0x12, 0xe3, 0xd1, 0xbe, 0x1f, 0xaf, 0x27, 0x3e,
    0x7b, 0xb5, 0xa2, 0xbe, 0xa3, 0x43, 0x9d, 0x3e, 0xb6, 0x93, 0x3c, 0x3e,
    0x3f, 0x1a, 0xd0, 0x3e, 0x2c, 0x76, 0xb6, 0x3e, 0x6b, 0xa8, 0x02, 0xbe,
    0x3a, 0xda, 0x3d, 0x3d, 0xf4, 0xaa, 0x16, 0xbe, 0xb0, 0x31, 0x2b, 0x3d,
    0xf4, 0xb9, 0xbe, 0xbe, 0xac, 0x2f, 0x81, 0xbe, 0x60, 0xbb, 0x01, 0x3d,
    0x6e, 0x7c, 0x1d, 0xbe, 0x1c, 0x47, 0x65, 0xbe, 0xf8, 0x81, 0xc7, 0xbc,
    0x77, 0xfd, 0xdc, 0x3d, 0x54, 0xdd, 0xe0, 0xbe, 0x83, 0x98, 0xbf, 0x3e,
    0x91, 0x9c, 0xe8, 0x3d, 0x67, 0xec, 0x8a, 0x3d, 0x60, 0x0a, 0x87, 0x3e,
    0x47, 0xb0, 0x46, 0x3e, 0xb2, 0x36, 0xb7, 0x3d, 0xf1, 0x87, 0x29, 0xbe,
    0x7a, 0xf8, 0x9f, 0xbe, 0x3e, 0xba, 0x90, 0xbe, 0xe1, 0x4b, 0xc9, 0xbe,
    0x4e, 0x9e, 0x84, 0x3d, 0x4b, 0x89, 0x37, 0xbd, 0xf3, 0xad, 0xb6, 0xbd,
    0x89, 0xbd, 0xd5, 0x3e, 0x93, 0x19, 0x44, 0x3e, 0x90, 0xb3, 0xc7, 0xbe,
    0xe4, 0xaf, 0x70, 0x3e, 0xde, 0x1f, 0x24, 0x3e, 0xbd, 0xe8, 0xb8, 0xbe,
    0x56, 0x81, 0x56, 0xbd, 0x4a, 0x5d, 0x9a, 0x3e, 0xce, 0x6a, 0x24, 0xbd,
    0x6f, 0x69, 0xcd, 0xbd, 0x06, 0xbc, 0x37, 0xbe, 0x5a, 0x46, 0xe6, 0xbe,
    0x9a, 0x70, 0xde, 0xbd, 0x84, 0x96, 0xe6, 0x3d, 0x6f, 0xaa, 0x8b, 0xbd,
    0xb4, 0x15, 0xc0, 0xbd, 0x97, 0x94, 0x33, 0x3e, 0x15, 0xd5, 0x18, 0x3e,
    0x9c, 0x7a, 0xb0, 0xbe, 0xdf, 0x62, 0xa5, 0x3e, 0xa7, 0xa7, 0x11, 0x3e,
    0x15, 0xdb, 0x2e, 0x3d, 0x04, 0x5d, 0x8d, 0x3e, 0x9c, 0x18, 0xb1, 0xbe,
    0x14, 0x8c, 0xa4, 0xbb, 0x12, 0xe1, 0xff, 0xff, 0x10, 0x00, 0x00, 0x00,
    0x08, 0x00, 0x00, 0x00, 0x14, 0x00, 0x00, 0x00, 0x30, 0x00, 0x00, 0x00,
    0x02, 0x00, 0x00, 0x00, 0x04, 0x00, 0x00, 0x00, 0x10, 0x00, 0x00, 0x00,
    0x19, 0x00, 0x00, 0x00, 0x73, 0x65, 0x71, 0x75, 0x65, 0x6e, 0x74, 0x69,
    0x61, 0x6c, 0x2f, 0x64, 0x65, 0x6e, 0x73, 0x65, 0x5f, 0x31, 0x2f, 0x4d,
    0x61, 0x74, 0x4d, 0x75, 0x6c, 0x00, 0x00, 0x00, 0x80, 0xe0, 0xff, 0xff,
    0x8a, 0xe1, 0xff, 0xff, 0x04, 0x00, 0x00, 0x00, 0x00, 0x1c, 0x00, 0x00,
    0x3c, 0xf0, 0x99, 0xbe, 0xd8, 0x9f, 0xbb, 0xbe, 0x8b, 0xf5, 0x95, 0xbd,
    0x3a, 0xd3, 0x32, 0x3e, 0x9a, 0x2a, 0x0e, 0xbe, 0x64, 0x8b, 0x69, 0x3c,
    0x33, 0x01, 0x4a, 0xbe, 0x79, 0x44, 0x21, 0x3d, 0x59, 0x0e, 0xe6, 0xbd,
    0xd6, 0x0f, 0x9e, 0xbd, 0xef, 0xea, 0x25, 0xbf, 0x25, 0xd3, 0x19, 0x3f,
    0x61, 0x0b, 0x83, 0xbe, 0xdd, 0x54, 0x07, 0xbe, 0x5b, 0x87, 0x9e, 0x3d,
    0x6e, 0xe5, 0x95, 0xbe, 0xe5, 0xdd, 0x24, 0x3e, 0x5f, 0xb0, 0x48, 0xbe,
    0xfa, 0xcf, 0x0e, 0x3e, 0x4a, 0xba, 0x5f, 0xbd, 0xf8, 0xd6, 0x22, 0x3e,
    0x66, 0x43, 0x98, 0x3d, 0xca, 0x20, 0xa5, 0xbc, 0x1f, 0xcf, 0xd7, 0xbd,
    0xf8, 0xc4, 0x88, 0x3d, 0xa6, 0x5b, 0x11, 0x3d, 0x00, 0x35, 0xae, 0xbe,
    0x99, 0x41, 0x6a, 0x3f, 0x81, 0x00, 0xb8, 0xbc, 0xd6, 0xe0, 0x14, 0xbe,
    0xe3, 0x59, 0xd7, 0x3d, 0x96, 0xa9, 0x98, 0xbc, 0xf9, 0xca, 0x83, 0x3e,
    0x21, 0x2c, 0x23, 0xbe, 0x7a, 0xb5, 0x81, 0x3e, 0xb7, 0x95, 0x90, 0x3d,
    0x81, 0x6d, 0x32, 0xbd, 0x6a, 0x3c, 0x5b, 0x3b, 0x97, 0xf8, 0xde, 0x3d,
    0x90, 0x50, 0xd8, 0xbd, 0x66, 0x5f, 0x52, 0x3e, 0x2f, 0xa7, 0x0e, 0x3c,
    0x85, 0xe7, 0x91, 0xbe, 0x9e, 0x61, 0x9d, 0x3f, 0x6c, 0xcc, 0x23, 0xbd,
    0x82, 0x51, 0x38, 0xbd, 0x0a, 0xf5, 0xfc, 0x3c, 0x36, 0x68, 0x11, 0x3e,
    0x90, 0x9a, 0x08, 0x3e, 0xf8, 0xf0, 0x36, 0xbd, 0x87, 0xc3, 0xb1, 0x3e,
    0x13, 0x02, 0x65, 0xbd, 0x7e, 0x33, 0xed, 0x3b, 0xcd, 0x50, 0x9a, 0x3c,
    0x1b, 0x5c, 0x86, 0x3e, 0x78, 0xe8, 0xea, 0xbd, 0xfc, 0x30, 0x9f, 0xbd,
    0xb9, 0x55, 0x91, 0x3d, 0x7c, 0x0d, 0xb9, 0x3d, 0x9b, 0xae, 0x77, 0x3f,
    0x0e, 0x88, 0x1b, 0xbe, 0x0e, 0x4a, 0x85, 0x3d, 0x9f, 0x66, 0x5a, 0x3d,
    0x47, 0x8f, 0xb4, 0x3e, 0xd1, 0xf9, 0x52, 0xbd, 0xc1, 0x2f, 0xd4, 0xbd,
    0xf5, 0xec, 0x19, 0x3e, 0x4c, 0x12, 0x91, 0x3d, 0x78, 0xb6, 0x8a, 0x3d,
    0x79, 0x6a, 0x4e, 0x3d, 0x9d, 0x7d, 0x5d, 0xbd, 0x9c, 0x68, 0xd6, 0xbd,
    0x95, 0x76, 0x90, 0xbe, 0x6f, 0x50, 0x7c, 0xbc, 0x07, 0x02, 0x17, 0xbe,
    0x20, 0x6f, 0x42, 0x3f, 0xfd, 0x1a, 0xa6, 0xbe, 0xa3, 0x43, 0x97, 0xbd,
    0x46, 0x8c, 0x25, 0x3d, 0x5e, 0x7c, 0x32, 0xbd, 0x79, 0xf0, 0xe6, 0xbd,
    0x78, 0xa0, 0x3e, 0xbe, 0x3c, 0xf4, 0x71, 0x3d, 0xc6, 0x66, 0x7f, 0x3d,
    0xc2, 0xab, 0xcd, 0x3d, 0x6e, 0x72, 0x79, 0x3b, 0x2e, 0xe6, 0x77, 0xbe,
    0x5b, 0x0d, 0x7d, 0xbe, 0xa4, 0xd2, 0xe3, 0xbe, 0xb8, 0x38, 0x28, 0xbe,
    0x7b, 0xa9, 0xca, 0xbe, 0x23, 0x6d, 0x88, 0x3f, 0x7b, 0x8f, 0xb1, 0xbe,
    0x7c, 0x9a, 0x1c, 0xbe, 0x48, 0x7b, 0x8c, 0x3d, 0x7e, 0x6b, 0xa3, 0xbd,
    0x39, 0x0e, 0xa2, 0xbe, 0x7e, 0xce, 0x2b, 0xbe, 0x9d, 0x31, 0x0c, 0xbd,
    0x6e, 0x1b, 0x15, 0xbe, 0x06, 0xc2, 0x51, 0x3e, 0xe7, 0x2a, 0xf2, 0x3c,
    0xa8, 0x6f, 0xae, 0xbe, 0xf8, 0x2b, 0x0f, 0xbe, 0x61, 0x0d, 0xb7, 0xbe,
    0xb5, 0xc8, 0xea, 0xbd, 0x29, 0x62, 0xef, 0xbe, 0xe3, 0x3a, 0x19, 0x3f,
    0x86, 0x18, 0x87, 0xbe, 0xce, 0x3b, 0x79, 0x3d, 0x91, 0x80, 0xac, 0x3d,
    0x63, 0x9b, 0x7f, 0x3d, 0x49, 0x2f, 0x4d, 0x3d, 0x5f, 0x5a, 0x78, 0xbe,
    0xa1, 0xaf, 0x6b, 0xbd, 0x88, 0x45, 0x0a, 0xbd, 0xfe, 0xc2, 0xb3, 0xbd,
    0x5b, 0x27, 0x39, 0xbe, 0xe0, 0xeb, 0x2e, 0xbe, 0x62, 0xba, 0x70, 0xbd,
    0x68, 0xc3, 0xd1, 0x3c, 0x1f, 0x5d, 0x7b, 0xbe, 0x8e, 0xd2, 0x63, 0xbe,
    0x2a, 0xce, 0xad, 0xbd, 0x2c, 0x14, 0x3b, 0xbd, 0xa3, 0x84, 0xbd, 0xbd,
    0xcf, 0x67, 0x85, 0xbe, 0xb8, 0x36, 0x19, 0xbd, 0x7e, 0x18, 0xf4, 0x3d,
    0x43, 0x00, 0xb9, 0xbb, 0xcd, 0x91, 0xa3, 0x3d, 0xa9, 0x90, 0x0b, 0xbe,
    0xa5, 0xfa, 0x8c, 0x3c, 0x6f, 0x31, 0x9c, 0xbd, 0x1c, 0x83, 0x5d, 0xbc,
    0xaa, 0x68, 0xba, 0x3c, 0x60, 0xac, 0xb3, 0xbd, 0x91, 0xee, 0xde, 0xbd,
    0x18, 0xb4, 0x3e, 0x3d, 0xd9, 0xe4, 0xed, 0x3d, 0x23, 0x5a, 0xe2, 0xbd,
    0xbd, 0x87, 0xf0, 0xbd, 0x3a, 0xf3, 0xf2, 0xbd, 0xda, 0x5e, 0x15, 0xbe,
    0x1e, 0x7e, 0x00, 0xbe, 0x07, 0x37, 0x0c, 0x3e, 0x31, 0xa7, 0x0a, 0x3e,
    0xf1, 0x78, 0x18, 0xbe, 0x72, 0x24, 0xa1, 0xbe, 0x91, 0x98, 0x30, 0xbe,
    0x9f, 0x39, 0x10, 0xbe, 0xec, 0xad, 0x59, 0xbc, 0x6b, 0x84, 0x32, 0x3e,
    0xa8, 0xe5, 0x96, 0xbe, 0x38, 0x26, 0xd9, 0xbc, 0x81, 0x9c, 0x08, 0xbe,
    0xcf, 0xd1, 0x8d, 0xbe, 0xb8, 0x96, 0xd2, 0x3d, 0xc1, 0x69, 0x68, 0x3c,
    0xc5, 0xaa, 0x56, 0x3d, 0xa4, 0x62, 0x9d, 0x3c, 0x7f, 0x89, 0xa0, 0x3d,
    0xbb, 0x7b, 0x0f, 0x3e, 0xed, 0x6c, 0x39, 0xbe, 0x64, 0x62, 0x04, 0xbe,
    0x00, 0x62, 0x62, 0xbe, 0xbb, 0x02, 0x43, 0xbe, 0x9a, 0xdf, 0x6b, 0x3b,
    0x8c, 0x4c, 0xa8, 0xbd, 0xa3, 0xd7, 0xfd, 0xbc, 0xbc, 0xd9, 0x1a, 0xbe,
    0x1f, 0x1a, 0x87, 0xbb, 0x40, 0xe3, 0xe4, 0x3d, 0xf1, 0x7d, 0xa4, 0x3d,
    0x6a, 0xf2, 0x23, 0x3d, 0x04, 0x3a, 0xca, 0x3d, 0xbf, 0xe6, 0x6b, 0x3d,
    0xc7, 0xef, 0x97, 0xbd, 0x31, 0xd3, 0xe3, 0x3c, 0x27, 0xec, 0x5a, 0x3c,
    0x03, 0x47, 0xa7, 0xbe, 0x65, 0xce, 0xb7, 0x3d, 0x2e, 0x0c, 0xa2, 0xbc,
    0x32, 0xff, 0x1f, 0x3d, 0xd2, 0xdb, 0x6f, 0xbe, 0xfb, 0x7c, 0xa7, 0x3a,
    0xec, 0xc9, 0x29, 0x3e, 0x52, 0xff, 0x8a, 0x3d, 0xb6, 0x9c, 0x12, 0xbe,
    0x33, 0x84, 0x5f, 0xbe, 0xf4, 0x00, 0x3b, 0xbe, 0x8c, 0xfc, 0x21, 0xbe,
    0x60, 0x7d, 0x81, 0xbb, 0x95, 0x83, 0x9c, 0xbc, 0xc2, 0x0b, 0x97, 0xbd,
    0x40, 0xe7, 0xeb, 0xbd, 0xbe, 0xdb, 0xb1, 0x3d, 0xa3, 0x11, 0xb3, 0x3c,
    0xae, 0xd9, 0xc5, 0xbd, 0x06, 0x67, 0x82, 0xbe, 0xba, 0x04, 0xa1, 0x3c,
    0x74, 0x82, 0xc1, 0xbd, 0xb2, 0x3e, 0xcb, 0x3d, 0x15, 0xfc, 0x08, 0x3e,
    0xf1, 0xc7, 0x2a, 0xbd, 0x5e, 0xe6, 0xf8, 0xbd, 0x6e, 0x5a, 0x61, 0xbe,
    0x10, 0xb0, 0xf3, 0xbc, 0x06, 0x8e, 0x92, 0xbe, 0xf9, 0x3d, 0x39, 0xbe,
    0x84, 0xfa, 0xdc, 0xbd, 0xc5, 0xa9, 0x0d, 0xbe, 0xb7, 0xff, 0x33, 0x3c,
    0x44, 0x73, 0x51, 0xbe, 0xc5, 0xe1, 0xe2, 0xbd, 0x7a, 0xdf, 0x39, 0xbc,
    0xe8, 0x0a, 0x25, 0xbd, 0x26, 0xea, 0x5c, 0xbe, 0xa7, 0x40, 0x64, 0xbe,
    0x9b, 0x6d, 0x61, 0xbd, 0x3a, 0xf3, 0x1e, 0xbc, 0x33, 0x7e, 0xdb, 0xbb,
    0x7d, 0xaa, 0x02, 0xbe, 0xba, 0xda, 0xbf, 0xbd, 0xec, 0xb3, 0x8f, 0xbe,
    0xfe, 0x68, 0x30, 0x3d, 0x41, 0x44, 0x7a, 0x3c, 0x8b, 0x41, 0xb0, 0xbc,
    0x47, 0xd6, 0x23, 0x3f, 0x58, 0xa4, 0x6f, 0xbe, 0x49, 0xed, 0x15, 0xbe,
    0x4b, 0x9c, 0xdb, 0xbd, 0xac, 0xd0, 0x90, 0x3f, 0xe5, 0xe9, 0x92, 0xbe,
    0xb2, 0xa1, 0x27, 0x3e, 0x15, 0xe0, 0x9f, 0x3e, 0xd3, 0x05, 0xb1, 0xbd,
    0xfc, 0xe2, 0xb9, 0xbe, 0xa0, 0x04, 0x6e, 0xbd, 0xb1, 0x18, 0xd7, 0x3d,
    0x85, 0x76, 0x2c, 0xbe, 0x5f, 0x91, 0xc3, 0x3c, 0x7d, 0x65, 0x21, 0xbe,
    0xf0, 0x80, 0x5e, 0xbe, 0x7c, 0x16, 0x92, 0x3e, 0x59, 0xe9, 0xa3, 0xbe,
    0x97, 0x02, 0xb2, 0xbe, 0xc2, 0x98, 0x18, 0xbe, 0x61, 0x9a, 0xbc, 0x3f,
    0x24, 0xff, 0x1c, 0xbe, 0x9a, 0xa1, 0x93, 0xbe, 0x2f, 0x5b, 0x9f, 0x3e,
    0xc7, 0xe8, 0x8b, 0xbc, 0x4d, 0xf3, 0x54, 0xbd, 0xea, 0x45, 0xb0, 0xbe,
    0xc0, 0x0f, 0x88, 0xbe, 0xf6, 0x5e, 0xc6, 0xbe, 0xe0, 0x3c, 0x9d, 0xbe,
    0x69, 0xbd, 0xb0, 0xbc, 0x0e, 0x9f, 0x51, 0xbe, 0x4f, 0x50, 0x04, 0x3f,
    0x15, 0x0d, 0x86, 0xbe, 0xb2, 0xf5, 0x85, 0x3d, 0x46, 0xfb, 0x32, 0xbe,
    0x9f, 0xe2, 0xdb, 0x3f, 0x97, 0x0c, 0x6b, 0xbe, 0x46, 0x42, 0xfa, 0xbb,
    0xb1, 0xce, 0x5a, 0x3e, 0xc6, 0x6a, 0x26, 0xbe, 0x1a, 0x18, 0xf0, 0xbd,
    0x05, 0x1f, 0x87, 0xbe, 0x94, 0x7d, 0x86, 0xbd, 0x2f, 0xc2, 0xbc, 0xbe,
    0x76, 0x97, 0x04, 0xbe, 0x36, 0x03, 0x16, 0xbe, 0x8a, 0x7c, 0x93, 0xbc,
    0x7e, 0xfd, 0x18, 0x3f, 0x9d, 0xa2, 0x8a, 0xbd, 0x55, 0xbf, 0xdb, 0xbc,
    0x46, 0xe5, 0xab, 0x3a, 0xa9, 0x38, 0xc0, 0x3f, 0xa8, 0xcc, 0xc7, 0xbe,
    0x48, 0xc8, 0x2d, 0xbe, 0x74, 0xd3, 0xdf, 0x3e, 0x35, 0xbf, 0x93, 0xbe,
    0xf6, 0x9f, 0xc8, 0xbe, 0xc2, 0x87, 0xba, 0xbd, 0x21, 0x88, 0x80, 0xbd,
    0x18, 0x16, 0x32, 0xbe, 0x7b, 0x22, 0x40, 0xbe, 0x94, 0x6a, 0x1f, 0xbe,
    0xf0, 0x15, 0x08, 0xbe, 0x14, 0xfd, 0x47, 0x3f, 0x29, 0x3b, 0x48, 0xbe,
    0x8b, 0xc6, 0x1e, 0x3c, 0x76, 0x96, 0x8a, 0xbe, 0xbe, 0x30, 0xa4, 0x3e,
    0xf0, 0x0d, 0xa8, 0xbe, 0x36, 0xff, 0x3d, 0xbe, 0x86, 0x25, 0x10, 0x3d,
    0x2a, 0x4e, 0x94, 0xbe, 0xb6, 0xa1, 0xc7, 0xbd, 0xb0, 0xe5, 0x9a, 0xbe,
    0x05, 0x79, 0xc6, 0xbc, 0x90, 0x3f, 0xf0, 0xbe, 0x2f, 0x9f, 0x38, 0x3c,
    0xf6, 0xb9, 0xcb, 0x3c, 0xba, 0xa5, 0xb4, 0xbe, 0x60, 0xcd, 0xc8, 0x3e,
    0xa7, 0x51, 0x8d, 0xbd, 0x10, 0x84, 0x18, 0xbe, 0x79, 0x6e, 0xdb, 0x3d,
    0xb8, 0x9e, 0x04, 0x3f, 0x0b, 0xf0, 0xa1, 0xbe, 0x2f, 0xa0, 0x3c, 0xbe,
    0x87, 0xfd, 0x31, 0x3e, 0x5d, 0x8f, 0x2d, 0xbe, 0x46, 0xc3, 0x8f, 0xbb,
    0x15, 0xd5, 0xb1, 0xbe, 0xe6, 0x03, 0xac, 0xbd, 0xdb, 0xfc, 0xa0, 0xbe,
    0xe2, 0xb5, 0x6e, 0xbe, 0x4e, 0x3b, 0x00, 0xbe, 0x51, 0xc6, 0x98, 0xbd,
    0x4f, 0xb3, 0x96, 0x3c, 0x5d, 0x75, 0xa5, 0x3c, 0xa3, 0x20, 0xea, 0xbd,
    0xa9, 0x88, 0x66, 0x3c, 0xaa, 0xe2, 0xc0, 0x3e, 0x0a, 0x68, 0x85, 0xbe,
    0x42, 0x9d, 0x70, 0xbe, 0x4f, 0x51, 0x52, 0x3e, 0xfc, 0xef, 0x18, 0xbe,
    0x74, 0xc8, 0x88, 0xbe, 0x55, 0xdc, 0x85, 0xbe, 0x29, 0x44, 0xa2, 0xbe,
    0x1a, 0x68, 0x27, 0xbe, 0x61, 0x3b, 0xa4, 0xbd, 0xcc, 0x15, 0x8c, 0x3d,
    0x51, 0x3c, 0x94, 0xbe, 0x56, 0x6f, 0x4d, 0x3f, 0x6f, 0x7d, 0xe9, 0xbe,
    0x84, 0xb2, 0xa3, 0x3b, 0x88, 0xd6, 0x3c, 0xbe, 0x45, 0xf2, 0x8d, 0x3f,
    0x48, 0x4b, 0xd9, 0xbe, 0x47, 0xf2, 0x55, 0xbe, 0x17, 0xbd, 0x92, 0x3e,
    0xf6, 0x60, 0xd2, 0xbe, 0x9f, 0xc4, 0x26, 0xbe, 0xe7, 0x61, 0x72, 0xbe,
    0xad, 0xa6, 0x12, 0xbe, 0x00, 0xa3, 0x59, 0xbe, 0xc7, 0xf3, 0x7b, 0xbe,
    0x71, 0xf0, 0x14, 0x3e, 0xec, 0x35, 0x8a, 0xbc, 0x73, 0x40, 0x1b, 0x3f,
    0x65, 0x82, 0x9a, 0xbe, 0xb1, 0x79, 0x12, 0xbd, 0x2d, 0xe4, 0x74, 0xbe,
    0x9e, 0xf4, 0x0d, 0x40, 0x11, 0xf1, 0xc8, 0xbe, 0x7c, 0x50, 0x92, 0xbe,
    0x26, 0x65, 0x53, 0x3e, 0x96, 0x7c, 0x7a, 0xbd, 0xfb, 0xdf, 0x83, 0xbc,
    0xfc, 0x0b, 0xc0, 0xbd, 0xc7, 0x61, 0x88, 0xbe, 0xdd, 0x57, 0x88, 0xbe,
    0xe1, 0xf4, 0x80, 0xbe, 0x22, 0xac, 0x39, 0x3e, 0xe3, 0x1e, 0x99, 0xbe,
    0x4d, 0xf7, 0x3b, 0x3f, 0x89, 0xdc, 0x90, 0xbe, 0x17, 0x01, 0xba, 0xbd,
    0x8f, 0x6a, 0x47, 0x3c, 0x16, 0x25, 0xc8, 0x3f, 0x22, 0x4c, 0xb7, 0xbe,
    0x93, 0x78, 0xa3, 0xbd, 0x5c, 0x67, 0x85, 0x3e, 0xa5, 0xfb, 0x99, 0xbe,
    0x7f, 0x15, 0x94, 0xbc, 0x16, 0x65, 0x7f, 0xbe, 0xb8, 0x96, 0x39, 0xbe,
    0x78, 0xc0, 0xcd, 0xbe, 0xc0, 0x4e, 0xd6, 0xbd, 0xae, 0x74, 0x25, 0xbd,
    0x39, 0xbd, 0x71, 0xbe, 0x4a, 0x3e, 0x2c, 0x3f, 0x30, 0xbc, 0x94, 0xbe,
    0x6c, 0x19, 0x81, 0xbe, 0xa3, 0x1f, 0x91, 0xbe, 0xf5, 0x96, 0xa4, 0x3f,
    0x1f, 0xfc, 0x9d, 0x3c, 0xda, 0x0b, 0x43, 0xbe, 0x0f, 0xe1, 0xdc, 0x3e,
    0x74, 0x25, 0x9c, 0xbe, 0x31, 0x7c, 0xac, 0x3d, 0x17, 0x50, 0x1f, 0xbe,
    0xe3, 0x92, 0x71, 0xbd, 0x88, 0x5d, 0x8d, 0xbe, 0xf1, 0xcf, 0x63, 0xbe,
    0x4b, 0xdd, 0x0f, 0x3e, 0xb7, 0x2d, 0x24, 0xbe, 0xe5, 0x7b, 0x4e, 0x3f,
    0x9f, 0x10, 0x75, 0xbe, 0x65, 0x0b, 0x12, 0xbe, 0x58, 0xce, 0xaf, 0x3c,
    0xc5, 0x10, 0x99, 0x3f, 0xa1, 0x19, 0xc3, 0xbd, 0x7e, 0xb7, 0x92, 0x3c,
    0xf5, 0x13, 0x2d, 0x3d, 0x9e, 0xa8, 0x90, 0xbe, 0x4c, 0x8f, 0x47, 0xbe,
    0xb1, 0xd4, 0x80, 0xbe, 0x57, 0xa2, 0x6f, 0xbc, 0x1c, 0x3c, 0x37, 0xbe,
    0x14, 0xe0, 0xb1, 0x3d, 0xdb, 0x00, 0xc6, 0x3c, 0x44, 0xc4, 0x58, 0xbd,
    0xac, 0xff, 0x04, 0x3f, 0x5e, 0xf2, 0x79, 0xbe, 0x88, 0x4f, 0x48, 0xbe,
    0xf4, 0xa9, 0x6a, 0xbe, 0x65, 0x15, 0x7b, 0x3f, 0xa3, 0x57, 0xb1, 0xbe,
    0xcb, 0x3d, 0xf7, 0x3d, 0x1c, 0x0a, 0xc9, 0x3e, 0xc5, 0xaf, 0xa4, 0xbe,
    0xfa, 0x2b, 0xe9, 0xbd, 0xd2, 0x53, 0x60, 0x3d, 0x9d, 0x57, 0x1a, 0x3d,
    0xbf, 0x61, 0x14, 0xbe, 0xcc, 0x82, 0x7f, 0xbe, 0xa3, 0xf4, 0x1e, 0xbd,
    0x48, 0xb3, 0x73, 0xbe, 0x0d, 0xc1, 0xa3, 0x3e, 0x38, 0x3c, 0xc8, 0xbd,
    0xd8, 0x2c, 0x31, 0xbe, 0x0f, 0x5e, 0xa0, 0x3d, 0x2d, 0x18, 0x4a, 0x3f,
    0x41, 0x8b, 0x96, 0xbe, 0x68, 0x53, 0x93, 0xbe, 0x7e, 0xa7, 0x87, 0x3e,
    0x23, 0xbc, 0xc5, 0xbe, 0x60, 0xf7, 0x53, 0xbe, 0xd2, 0x48, 0xc5, 0xbe,
    0x2c, 0xf6, 0x1d, 0xbe, 0xa5, 0x72, 0x01, 0xbf, 0x4c, 0x5c, 0xdb, 0xbe,
    0xda, 0x90, 0xa2, 0x3c, 0x04, 0xa5, 0x13, 0x3e, 0xb4, 0xff, 0xad, 0xbc,
    0x31, 0x8b, 0x21, 0x3c, 0x18, 0x47, 0x5b, 0xbe, 0xf2, 0xa5, 0x07, 0x3e,
    0x24, 0x11, 0xac, 0x3d, 0x5f, 0xe2, 0x5c, 0x3d, 0xf7, 0x0b, 0x34, 0xbf,
    0xfb, 0x46, 0xd8, 0x3e, 0x42, 0xee, 0x8f, 0xbd, 0x62, 0x94, 0x8d, 0xbe,
    0x44, 0xdc, 0xe2, 0x3b, 0xfd, 0x53, 0xca, 0xbe, 0x61, 0xaa, 0xc1, 0x3d,
    0x9d, 0x54, 0xd3, 0xbe, 0x22, 0x51, 0x08, 0xbe, 0xa5, 0x17, 0x0f, 0x3e,
    0x8c, 0x8e, 0xfc, 0x3e, 0xeb, 0x02, 0x6f, 0x3d, 0x92, 0x6a, 0x02, 0xbd,
    0xfc, 0x44, 0xc4, 0xbc, 0xbd, 0xc9, 0xe0, 0x3e, 0xcd, 0x42, 0xa7, 0x3d,
    0xd5, 0x54, 0x29, 0xbf, 0x3d, 0x8a, 0x72, 0x3f, 0x81, 0xe2, 0xcf, 0x3d,
    0xbc, 0x70, 0x4a, 0xbe, 0x5e, 0xc0, 0xc1, 0xbb, 0x5b, 0xb0, 0x80, 0x3d,
    0x4e, 0x03, 0xd8, 0x3d, 0xed, 0xe6, 0x53, 0xbe, 0x62, 0xf8, 0xdd, 0x3a,
    0xe4, 0x3c, 0x73, 0x3d, 0x38, 0x87, 0x1d, 0x3e, 0x42, 0x82, 0x89, 0x3d,
    0x2d, 0xae, 0xbb, 0x3d, 0x80, 0x57, 0xa7, 0xbd, 0x78, 0x09, 0x8c, 0x3e,
    0x16, 0xd0, 0xec, 0x3d, 0x35, 0xa3, 0xb1, 0xbe, 0x69, 0x0a, 0xba, 0x3f,
    0x4e, 0xa4, 0x7f, 0x3d, 0x22, 0x0c, 0xdc, 0xbd, 0x0f, 0xba, 0x42, 0x3d,
    0x60, 0xa4, 0x4a, 0x3e, 0x29, 0xa7, 0xa0, 0x3d, 0x00, 0xae, 0x88, 0xbe,
    0x47, 0x0b, 0xe3, 0x3d, 0x4f, 0x0e, 0x19, 0x3d, 0x6a, 0x7d, 0x8f, 0xbd,
    0x5f, 0x40, 0x7e, 0x3d, 0x1d, 0xcd, 0x7c, 0x3d, 0x88, 0x39, 0x07, 0xbd,
    0x08, 0xf7, 0xb2, 0xbc, 0xae, 0xfb, 0xa6, 0x3c, 0x18, 0x7d, 0xd7, 0xbd,
    0xd9, 0xc6, 0xa1, 0x3f, 0x14, 0xc1, 0x01, 0x3d, 0x9a, 0x79, 0x7f, 0xbd,
    0x24, 0x57, 0xf7, 0x3c, 0x8a, 0xe8, 0x84, 0x3e, 0x94, 0x6a, 0xd5, 0xbd,
    0xf9, 0x50, 0x3a, 0xbe, 0x40, 0xfa, 0x21, 0x3e, 0x88, 0x87, 0x9e, 0x3d,
    0x6d, 0xb7, 0x88, 0x3c, 0x49, 0x08, 0xa4, 0x3d, 0xa5, 0x2c, 0xed, 0xbd,
    0xea, 0x62, 0xd1, 0xbd, 0xad, 0x25, 0xb0, 0xbe, 0x8e, 0x7d, 0x01, 0xbd,
    0xe7, 0xdb, 0xb4, 0xbe, 0x61, 0xe6, 0x4b, 0x3f, 0x5e, 0x2a, 0x5f, 0x3c,
    0x29, 0xf3, 0x4f, 0xbe, 0x21, 0xbc, 0xa9, 0x3c, 0xad, 0xb9, 0x20, 0x3d,
    0x86, 0x95, 0x5c, 0xbe, 0xae, 0x16, 0x0c, 0xbe, 0xd9, 0x3c, 0xc4, 0xbd,
    0x14, 0x20, 0xf9, 0x3c, 0xdd, 0x83, 0x7b, 0x3d, 0x27, 0x44, 0x38, 0x3d,
    0x7a, 0x05, 0x7d, 0xbe, 0x3b, 0x15, 0xc0, 0xbe, 0x10, 0x22, 0xec, 0xbe,
    0xe1, 0xfe, 0x36, 0xbe, 0xb6, 0x16, 0x9e, 0xbe, 0x94, 0xf1, 0x41, 0x3f,
    0x59, 0x0b, 0xc6, 0xbd, 0xff, 0xac, 0x53, 0xbe, 0x8b, 0xbf, 0xf6, 0x3c,
    0x90, 0x50, 0x8a, 0xbd, 0x28, 0xfd, 0x44, 0xbe, 0xc3, 0xa1, 0x42, 0xbd,
    0x6e, 0x0c, 0x01, 0xbe, 0x81, 0xad, 0x87, 0xbe, 0xa7, 0x15, 0xda, 0x3d,
    0xf0, 0x27, 0xfd, 0x3a, 0x23, 0x8f, 0x15, 0xbe, 0xbe, 0x0d, 0x80, 0xbe,
    0x7e, 0xb9, 0xf5, 0xbe, 0x74, 0xc8, 0x0f, 0xbe, 0x0c, 0x99, 0x91, 0xbe,
    0x01, 0x78, 0xa7, 0x3e, 0x3c, 0x8c, 0xd9, 0xbb, 0x9c, 0x46, 0x7d, 0x3c,
    0xe7, 0x65, 0x2d, 0x3e, 0xdc, 0xec, 0x2a, 0x3d, 0xaf, 0xab, 0x91, 0xbd,
    0x91, 0x12, 0xc0, 0xbd, 0xc3, 0xf8, 0xcc, 0x3d, 0x40, 0xf7, 0xc8, 0xbe,
    0xef, 0x7e, 0x36, 0xbf, 0xd9, 0xa3, 0xc5, 0xbe, 0x23, 0xda, 0xb7, 0xbe,
    0x65, 0x00, 0xf5, 0xbe, 0x16, 0x03, 0xda, 0xbe, 0x64, 0x1b, 0xdd, 0x3d,
    0xf2, 0x20, 0xf8, 0x3d, 0xea, 0x3a, 0xcd, 0xbe, 0x1b, 0x08, 0x2d, 0x3e,
    0xa6, 0x79, 0x40, 0x3d, 0xf9, 0xf3, 0x13, 0xbd, 0xb1, 0x78, 0x4f, 0xbe,
    0xbb, 0x7e, 0x79, 0xbe, 0xc0, 0x9f, 0xdc, 0xbe, 0xb2, 0x01, 0x3b, 0x3e,
    0xa1, 0x8f, 0xb2, 0xbe, 0x91, 0x3d, 0xa2, 0xbe, 0x18, 0x30, 0xad, 0xbe,
    0x73, 0xa1, 0x5c, 0xbe, 0xd6, 0xe9, 0xfd, 0xbc, 0x33, 0xc4, 0xf0, 0x3d,
    0x2c, 0xef, 0xa6, 0xbd, 0xff, 0xa6, 0x08, 0xbe, 0xc4, 0x4c, 0x8b, 0xbe,
    0x23, 0x30, 0x17, 0xbd, 0x34, 0xb4, 0x94, 0x3e, 0x12, 0xb0, 0x75, 0x3d,
    0x69, 0x9c, 0xbd, 0x3e, 0xe9, 0x4c, 0xa5, 0x3d, 0xe5, 0x0f, 0x10, 0x3d,
    0x77, 0x3a, 0x35, 0x3e, 0x84, 0x06, 0xdb, 0xbd, 0x56, 0x97, 0x93, 0x3d,
    0xb3, 0xd6, 0x3f, 0xbf, 0x60, 0x78, 0x45, 0x3d, 0x6f, 0x70, 0xab, 0xbd,
    0x8c, 0xce, 0xcf, 0x3d, 0xd7, 0x18, 0x91, 0xbd, 0x6d, 0x15, 0x1c, 0xbe,
    0xf2, 0xc4, 0xe2, 0xbd, 0x99, 0x3e, 0x8c, 0xbd, 0xa3, 0x10, 0xf7, 0x3d,
    0xfe, 0x18, 0x80, 0xbc, 0x47, 0x47, 0xbc, 0x3d, 0xdc, 0xc3, 0xe9, 0xbd,
    0x40, 0xe8, 0xb2, 0xbd, 0x1d, 0x18, 0xec, 0x3d, 0x79, 0xdd, 0x4a, 0x3d,
    0x61, 0x24, 0x19, 0xbe, 0x3c, 0x51, 0x3f, 0xbf, 0x05, 0xbc, 0x49, 0xbe,
    0x90, 0x55, 0x8b, 0x3d, 0x71, 0x25, 0xd4, 0xbe, 0x2f, 0x2b, 0x31, 0x3e,
    0x9b, 0xce, 0x65, 0x3c, 0x89, 0x18, 0x0c, 0x3e, 0xe6, 0xb9, 0x95, 0x3d,
    0x80, 0xf8, 0xae, 0xbd, 0xe8, 0xfa, 0xb3, 0xbc, 0xfd, 0xb9, 0x6d, 0x3e,
    0x29, 0x94, 0xfc, 0xbd, 0xa3, 0xf6, 0x3f, 0xbe, 0xd4, 0x09, 0xe4, 0x3d,
    0xfb, 0x42, 0xfb, 0x3b, 0xb2, 0xbf, 0x7d, 0x3d, 0x91, 0xe4, 0x16, 0xbf,
    0x2e, 0xff, 0x96, 0xbe, 0x87, 0x65, 0x75, 0x3b, 0xd4, 0xd7, 0x06, 0xbf,
    0xda, 0xd1, 0x2a, 0x3e, 0xd9, 0xa5, 0x80, 0x3e, 0x61, 0x15, 0x90, 0xbe,
    0x7a, 0xca, 0x18, 0x3d, 0x91, 0x96, 0x14, 0x3e, 0x37, 0x45, 0x80, 0xbc,
    0x9b, 0x9c, 0x06, 0x3e, 0x9b, 0xd4, 0x59, 0xbe, 0x23, 0x98, 0x55, 0xbe,
    0x60, 0xca, 0x85, 0x3e, 0x62, 0xc8, 0x31, 0x3d, 0x4b, 0x71, 0x16, 0xbe,
    0x4f, 0x8b, 0xa0, 0xbe, 0x84, 0xc2, 0x8b, 0xbe, 0x02, 0x3c, 0x89, 0xbe,
    0xb7, 0x27, 0x34, 0xbf, 0x3e, 0x46, 0x0b, 0x3e, 0xb4, 0x19, 0x07, 0xbe,
    0xb0, 0xac, 0x00, 0xbf, 0x13, 0xf6, 0x05, 0x3e, 0x3b, 0x3e, 0x34, 0x3d,
    0x6a, 0xe5, 0xa8, 0xbd, 0x0e, 0xaa, 0x54, 0x3b, 0x46, 0x56, 0x4b, 0x3c,
    0xbb, 0xf2, 0x41, 0x3d, 0xb1, 0xa7, 0x0e, 0x3e, 0x7b, 0x03, 0x9f, 0xbd,
    0x8d, 0x86, 0x03, 0x3d, 0x7c, 0xc0, 0xee, 0xbc, 0x37, 0x18, 0x3a, 0xbd,
    0xce, 0xac, 0x12, 0xbe, 0xab, 0xaa, 0x91, 0xbd, 0xb0, 0x9a, 0x13, 0x3e,
    0xc8, 0x8b, 0xc4, 0xbc, 0x58, 0xee, 0x07, 0xbe, 0x28, 0x10, 0x79, 0x3d,
    0xbe, 0x88, 0x88, 0x3d, 0xf4, 0xd9, 0x49, 0xbd, 0x79, 0x15, 0x88, 0xbd,
    0x35, 0x2f, 0x1a, 0xbe, 0xbb, 0xc2, 0xb0, 0xbe, 0xd0, 0xf9, 0x84, 0x3d,
    0xac, 0x05, 0x86, 0x3b, 0x80, 0x68, 0x9e, 0xbe, 0x65, 0x53, 0xf0, 0xbd,
    0xb7, 0x5c, 0x64, 0xbe, 0xfd, 0xc5, 0x18, 0x3c, 0xe7, 0xe2, 0xd3, 0xbe,
    0x9d, 0x0c, 0xa2, 0x3d, 0xb3, 0xf5, 0x2f, 0xbe, 0x4c, 0x7a, 0x97, 0xbe,
    0xad, 0x04, 0xa0, 0x3d, 0xeb, 0x2b, 0xfd, 0xbd, 0x88, 0x95, 0x1f, 0xbb,
    0x06, 0xed, 0x55, 0xbe, 0x7f, 0xe0, 0x36, 0xbe, 0xb7, 0x1b, 0x89, 0xbe,
    0xab, 0x89, 0x64, 0x3d, 0x23, 0x04, 0xfd, 0xbd, 0x6b, 0xbf, 0xd2, 0x3d,
    0x19, 0x10, 0x8c, 0xbb, 0x5d, 0xd2, 0xfe, 0xbd, 0xc6, 0x89, 0xd7, 0xbd,
    0x61, 0x38, 0x1b, 0xbe, 0x13, 0x83, 0x16, 0x3d, 0xe5, 0x1e, 0x85, 0xbe,
    0xc9, 0x28, 0x92, 0x3e, 0x9c, 0x52, 0xa8, 0x3d, 0x03, 0xae, 0x02, 0x3e,
    0xbc, 0x40, 0xbc, 0x3c, 0xda, 0xe5, 0x23, 0x3e, 0xb1, 0xe7, 0xd7, 0xbd,
    0xd9, 0x5f, 0xc1, 0x3d, 0x0d, 0xa7, 0x6d, 0x3e, 0xf3, 0xa0, 0x35, 0xbd,
    0x0a, 0xe3, 0x3a, 0x3e, 0xb0, 0xca, 0x96, 0x3d, 0x3c, 0x0b, 0xd5, 0xbe,
    0x32, 0x8b, 0x43, 0xbb, 0xea, 0x8e, 0x01, 0x3e, 0x68, 0xc4, 0x0a, 0x3d,
    0xa0, 0x4e, 0x62, 0xbe, 0xc8, 0xe9, 0x1b, 0x3e, 0x37, 0xae, 0x08, 0x3e,
    0x9a, 0x75, 0x5e, 0x3d, 0x85, 0x00, 0x11, 0x3d, 0xc8, 0x80, 0x91, 0x3d,
    0x57, 0x54, 0x05, 0xbe, 0x26, 0x3f, 0xb1, 0xbc, 0xf0, 0x77, 0x9c, 0x3d,
    0xa6, 0x81, 0x2c, 0x3d, 0xe7, 0x0c, 0x32, 0x3c, 0x9d, 0x93, 0x32, 0xbd,
    0x90, 0xfa, 0xa2, 0xbe, 0x63, 0xd3, 0xeb, 0xbc, 0x23, 0xe7, 0x8c, 0xbe,
    0x5b, 0x79, 0x14, 0x3d, 0x61, 0xc0, 0x57, 0x3d, 0xdb, 0x25, 0xc4, 0x3e,
    0xd9, 0x57, 0xbd, 0x3d, 0xc0, 0xcc, 0xba, 0x3d, 0x90, 0x19, 0x05, 0x3b,
    0xb8, 0x37, 0xd1, 0x3c, 0x62, 0xeb, 0xe5, 0xbd, 0x55, 0x18, 0x26, 0xbe,
    0x5b, 0xe5, 0xec, 0x3d, 0x16, 0x8b, 0x2a, 0x3d, 0x2f, 0x53, 0x29, 0x3e,
    0x46, 0xac, 0x13, 0xbb, 0xb0, 0x2d, 0x4b, 0xbe, 0x68, 0x38, 0xe8, 0x3c,
    0x50, 0xe0, 0x33, 0xbf, 0x3d, 0x8d, 0xd2, 0xbc, 0xdd, 0x8c, 0x23, 0xbd,
    0x1e, 0x39, 0xb1, 0x3d, 0x62, 0x08, 0x7d, 0x3d, 0xec, 0x5b, 0xc0, 0x3d,
    0x56, 0x69, 0x0d, 0x3d, 0x2b, 0x6b, 0x21, 0xbd, 0xc8, 0xa2, 0x1c, 0xbe,
    0x33, 0x96, 0x2e, 0xbe, 0x3f, 0xca, 0x06, 0x3e, 0xa8, 0x57, 0x1e, 0x3d,
    0xe4, 0x8a, 0x40, 0xbe, 0x9f, 0x56, 0x20, 0xbd, 0xf4, 0x02, 0xb6, 0xbe,
    0xb9, 0x19, 0x9c, 0xbe, 0xbb, 0xe8, 0x01, 0xbf, 0x80, 0xc1, 0xe0, 0xbb,
    0x5b, 0x1a, 0x2e, 0xbe, 0x4e, 0x7f, 0x53, 0xbe, 0x88, 0xfe, 0xe1, 0x3d,
    0xb2, 0xb0, 0x16, 0x3d, 0x77, 0xe4, 0x57, 0x3d, 0x43, 0x9e, 0x4b, 0xbd,
    0xc0, 0x39, 0xc6, 0xbd, 0x17, 0x13, 0xf3, 0xbc, 0xc7, 0xfa, 0x91, 0x3d,
    0x34, 0x6f, 0x1b, 0xbe, 0x5b, 0x14, 0x30, 0xbb, 0xe2, 0x49, 0xbd, 0xbc,
    0x79, 0x5b, 0x1b, 0xbe, 0x6c, 0x7b, 0xac, 0xbe, 0x8f, 0x96, 0x99, 0xbe,
    0x9c, 0x3f, 0x3b, 0xbd, 0xcc, 0xf4, 0x88, 0xbd, 0xac, 0xac, 0x91, 0x3d,
    0x50, 0xc1, 0x15, 0x3d, 0x18, 0x61, 0x54, 0x3c, 0xd0, 0xc9, 0x97, 0x3c,
    0x4e, 0x9a, 0x85, 0xbc, 0x02, 0xc1, 0xdd, 0xbd, 0xc7, 0xd6, 0x40, 0x3d,
    0x41, 0x40, 0x4f, 0x3d, 0x71, 0xec, 0x21, 0xbd, 0x2a, 0x5b, 0x23, 0x3d,
    0xad, 0x12, 0x08, 0xbe, 0x33, 0xb2, 0xce, 0xba, 0xa8, 0xbf, 0x4e, 0x3d,
    0xc1, 0xd5, 0xa7, 0xbe, 0xf6, 0x97, 0x14, 0xbe, 0xe7, 0xcc, 0x57, 0xbd,
    0x3d, 0x7e, 0x22, 0x3d, 0x75, 0xb6, 0x5c, 0xbd, 0xbb, 0x4d, 0xe5, 0xbd,
    0xf8, 0xa0, 0xa1, 0xbd, 0xe1, 0xfb, 0x0f, 0xbd, 0x26, 0x38, 0x13, 0xbe,
    0x33, 0xfd, 0x0c, 0x3e, 0x44, 0xc4, 0x28, 0xbd, 0x16, 0x55, 0xf7, 0xbc,
    0x40, 0xf1, 0x0d, 0xbe, 0x40, 0x59, 0x5a, 0xbe, 0x70, 0x4f, 0xaf, 0x3c,
    0x3b, 0xa3, 0x31, 0xbe, 0x99, 0xe9, 0xb6, 0xbd, 0x6c, 0xde, 0x4b, 0x3d,
    0x01, 0x9c, 0x81, 0xbe, 0x99, 0x89, 0xd9, 0xbd, 0x2a, 0x10, 0x60, 0xbd,
    0xd1, 0x3c, 0xae, 0x3d, 0x80, 0x9c, 0xf0, 0xbd, 0x73, 0xe2, 0x11, 0xbe,
    0x09, 0x01, 0x18, 0xbd, 0x23, 0x83, 0xf9, 0x3c, 0x28, 0x78, 0xff, 0x3d,
    0x53, 0x76, 0xa8, 0x3d, 0x5e, 0x35, 0x12, 0xbd, 0x39, 0xfc, 0x7a, 0xbd,
    0xe3, 0xf0, 0x8b, 0x3d, 0x29, 0x43, 0x10, 0x3e, 0xd6, 0xcb, 0xf2, 0x39,
    0x62, 0xdd, 0xbf, 0xbd, 0x47, 0x54, 0x5c, 0xbe, 0xe4, 0xe9, 0x32, 0x3d,
    0x1b, 0xfa, 0x18, 0xbe, 0x52, 0xd4, 0x69, 0xbe, 0x89, 0x0b, 0x38, 0xbd,
    0x8c, 0xdb, 0x4e, 0xbe, 0x27, 0xd1, 0xee, 0xbd, 0x27, 0xf4, 0x1d, 0xbe,
    0x07, 0x6a, 0x24, 0xbe, 0x6f, 0x18, 0xcc, 0xbd, 0x90, 0x86, 0xe8, 0x3b,
    0x9b, 0xd2, 0x47, 0xbe, 0x76, 0xba, 0x5f, 0x3d, 0xe3, 0xa8, 0x79, 0xbe,
    0xe7, 0xda, 0xbf, 0xbd, 0x2c, 0x22, 0x86, 0xbe, 0x68, 0x39, 0x62, 0xbe,
    0x1d, 0x2b, 0xb7, 0xbd, 0x2e, 0xd1, 0xca, 0x3d, 0x56, 0x7d, 0x3b, 0xbe,
    0x53, 0xb0, 0x5b, 0xbe, 0x2f, 0x0b, 0xd6, 0xbd, 0x9d, 0x82, 0xab, 0xbc,
    0x00, 0xae, 0x83, 0x3d, 0xac, 0x24, 0xbc, 0x3d, 0x18, 0x74, 0x80, 0xbe,
    0x72, 0x4b, 0xe1, 0x3d, 0xa1, 0x31, 0x14, 0xbe, 0x85, 0xea, 0xeb, 0xbc,
    0x9f, 0xc2, 0x1e, 0x3d, 0x9f, 0xdc, 0xcb, 0xbd, 0x72, 0xf9, 0x36, 0xbd,
    0x25, 0xfb, 0xa4, 0x3c, 0xdf, 0xb1, 0x66, 0xbe, 0xf8, 0x43, 0xaa, 0xbd,
    0xd3, 0x26, 0xed, 0xbd, 0x1b, 0x94, 0x13, 0xbe, 0xbf, 0x01, 0x99, 0xbd,
    0x55, 0x0f, 0x34, 0xbe, 0x8c, 0x29, 0x71, 0x3d, 0x96, 0xa3, 0xab, 0xbd,
    0x50, 0x4a, 0x85, 0xbd, 0x40, 0xfb, 0x46, 0xbd, 0xd6, 0xa8, 0x4d, 0xbd,
    0xbc, 0x58, 0x0c, 0x3d, 0xeb, 0x92, 0x9d, 0x3d, 0x31, 0x8b, 0x90, 0xbd,
    0xb9, 0x79, 0x81, 0xbe, 0xf7, 0x66, 0x5f, 0x3b, 0x26, 0x47, 0x15, 0xbe,
    0x3b, 0x05, 0x1d, 0xbd, 0x0c, 0xf8, 0x9d, 0xbd, 0x56, 0xaa, 0x4a, 0xbe,
    0x55, 0xc3, 0xc0, 0xbd, 0x20, 0xe7, 0xca, 0xbd, 0xb8, 0x73, 0x1d, 0xbe,
    0x8a, 0xe3, 0xc7, 0xbd, 0xfc, 0x1c, 0x4a, 0xbe, 0xad, 0x75, 0x50, 0xbe,
    0x53, 0x81, 0xf8, 0x3c, 0x08, 0xc3, 0x22, 0xbe, 0xbe, 0x21, 0x18, 0xbe,
    0x3d, 0x9b, 0x2d, 0x3e, 0x45, 0x2f, 0x8c, 0xbe, 0x87, 0x84, 0x96, 0xbd,
    0x04, 0x81, 0x29, 0x3d, 0xf6, 0x10, 0x1c, 0x3b, 0x00, 0x09, 0x95, 0x3c,
    0xae, 0x77, 0xcc, 0xbc, 0x91, 0x1b, 0x78, 0xbe, 0x4c, 0xfb, 0xee, 0xbd,
    0xef, 0x4a, 0x5e, 0xbe, 0x26, 0xd9, 0x3b, 0x3d, 0xcf, 0xad, 0x61, 0xbe,
    0x74, 0x51, 0xc9, 0xbe, 0x6f, 0xa4, 0x9c, 0xbe, 0x80, 0x7c, 0xc6, 0xbd,
    0xd8, 0x76, 0xd0, 0xbe, 0x02, 0x80, 0x97, 0xbe, 0xf4, 0x56, 0xbc, 0x3d,
    0x2b, 0xdf, 0x26, 0x3e, 0xa5, 0xea, 0xdd, 0xbd, 0x52, 0x65, 0xde, 0x3d,
    0xd8, 0x64, 0x61, 0xbd, 0xfe, 0xb7, 0xa9, 0x3d, 0x03, 0x72, 0x77, 0xbd,
    0x2c, 0xdf, 0x1a, 0xbe, 0xca, 0x1e, 0xb8, 0xbe, 0x87, 0x86, 0x71, 0x3e,
    0xb2, 0x4b, 0x81, 0xbe, 0x27, 0x3c, 0xc6, 0xbe, 0x62, 0xec, 0xe0, 0xbe,
    0xb5, 0x39, 0x68, 0xbe, 0xae, 0x4b, 0x43, 0xbe, 0xfb, 0x27, 0x2d, 0xbd,
    0x0f, 0xca, 0x19, 0xbe, 0x68, 0xcc, 0xe5, 0xbd, 0x37, 0x5f, 0x88, 0xbe,
    0xda, 0xfe, 0x72, 0x3c, 0x43, 0xc0, 0x6f, 0x3e, 0xe0, 0x42, 0xb2, 0xbd,
    0x6d, 0x01, 0x6a, 0x3e, 0x4a, 0x32, 0xec, 0x3c, 0xa9, 0x73, 0x3c, 0xbe,
    0xc9, 0x61, 0x99, 0x3e, 0xa7, 0x1a, 0xb4, 0xbd, 0x37, 0xe7, 0x0f, 0x3e,
    0x69, 0xff, 0x3e, 0xbe, 0x15, 0x8f, 0x4c, 0x3e, 0x61, 0x07, 0xf0, 0x3d,
    0xd5, 0x9b, 0x56, 0xbd, 0xa6, 0xed, 0xa5, 0xbd, 0x9f, 0x31, 0x0f, 0xbd,
    0x96, 0xc6, 0x77, 0xbe, 0x91, 0xaf, 0x52, 0xbc, 0x0e, 0xc2, 0x71, 0x3e,
    0xd8, 0x1c, 0xf7, 0xb9, 0x32, 0x5c, 0x25, 0x3e, 0xed, 0x8f, 0x20, 0x3d,
    0xe5, 0x9d, 0xde, 0x3d, 0x2a, 0x31, 0xe6, 0xbc, 0xed, 0x03, 0x43, 0xbd,
    0x51, 0x33, 0xb2, 0xbd, 0xb9, 0xe0, 0xbf, 0xbe, 0xb0, 0x41, 0xa8, 0x3c,
    0x4b, 0x6e, 0x1b, 0x3d, 0x8d, 0xba, 0x2d, 0xbe, 0xe0, 0xb4, 0x08, 0x3d,
    0xda, 0xcb, 0x78, 0x3e, 0x99, 0x75, 0x03, 0xbe, 0x50, 0x6d, 0xcd, 0x3d,
    0x02, 0xc9, 0x94, 0x3c, 0x83, 0x3d, 0x0c, 0xbd, 0xbe, 0x3a, 0xec, 0x3d,
    0xa4, 0xb1, 0xb2, 0xbc, 0x2c, 0xef, 0x1c, 0xbe, 0x02, 0x86, 0x93, 0x3e,
    0xd7, 0xba, 0xc2, 0x3d, 0xb1, 0xec, 0xbc, 0xbd, 0x97, 0xb4, 0xb8, 0xbe,
    0x4c, 0x50, 0xc3, 0xbe, 0x13, 0x08, 0xf2, 0xbd, 0xe9, 0x05, 0xf7, 0xbd,
    0x6a, 0xa2, 0x66, 0x3d, 0xd2, 0x46, 0x1f, 0x3e, 0x0a, 0x4b, 0xa6, 0xbe,
    0xcb, 0xee, 0x12, 0x3e, 0x16, 0x87, 0xf3, 0x3d, 0x55, 0x78, 0x03, 0xbe,
    0x29, 0x28, 0x39, 0x3e, 0xc1, 0xad, 0x5f, 0xbe, 0x5f, 0x11, 0xca, 0xbd,
    0x58, 0x99, 0x0d, 0x3e, 0x99, 0xdc, 0x81, 0x3e, 0x44, 0x54, 0xb6, 0xbd,
    0x39, 0x83, 0x1d, 0xbe, 0x9a, 0x48, 0x5a, 0xbe, 0x46, 0x26, 0x13, 0x3c,
    0x5b, 0x96, 0xbd, 0xbe, 0x71, 0xe0, 0x8f, 0xbd, 0x1a, 0xc3, 0x33, 0x3c,
    0xa7, 0x3a, 0xa4, 0xbe, 0x8b, 0xf7, 0xbf, 0xbd, 0x97, 0xc2, 0x52, 0x3e,
    0x0f, 0x22, 0xe6, 0xbd, 0xbf, 0xb8, 0x21, 0x3e, 0x90, 0xfc, 0x87, 0x3c,
    0x5c, 0xe0, 0xc9, 0x3d, 0x0a, 0x91, 0x80, 0x3e, 0x60, 0x35, 0x88, 0xbb,
    0x2d, 0x28, 0x3b, 0x3e, 0xfc, 0xf7, 0x0a, 0x3d, 0x33, 0x99, 0x48, 0xbe,
    0xd6, 0x3d, 0xda, 0xbc, 0xc0, 0x63, 0xaf, 0x3d, 0x2e, 0x5a, 0x89, 0xbe,
    0x3c, 0x3b, 0x16, 0xbe, 0xc9, 0xeb, 0xed, 0xbc, 0xd0, 0x0c, 0xbf, 0x3d,
    0xae, 0xe0, 0xc4, 0x3d, 0x43, 0x2f, 0x97, 0xbe, 0x87, 0x07, 0x29, 0xbe,
    0x9a, 0xc0, 0x87, 0xbd, 0x37, 0xf7, 0xc4, 0x3e, 0x7c, 0x69, 0x4c, 0xbc,
    0x3f, 0x4e, 0x24, 0x3e, 0xb7, 0x40, 0xbf, 0x3e, 0xba, 0x10, 0xc0, 0xbd,
    0x9f, 0x47, 0x84, 0xbd, 0xd3, 0x04, 0x01, 0x3e, 0x27, 0xf8, 0xa0, 0xbd,
    0x22, 0xf0, 0x09, 0x3d, 0xf7, 0x4a, 0x0a, 0xbe, 0x8c, 0x07, 0x11, 0xbe,
    0x4c, 0x70, 0x7a, 0xbd, 0xa0, 0x09, 0xaa, 0xbe, 0x42, 0x91, 0x97, 0x3d,
    0xba, 0x6d, 0xcc, 0xbe, 0x7d, 0x63, 0x17, 0xbe, 0xa8, 0x23, 0x92, 0x3e,
    0x09, 0x91, 0xe3, 0xbe, 0x6d, 0x6f, 0xa3, 0xbc, 0xdd, 0x57, 0xf6, 0x3d,
    0x6d, 0xc6, 0x7d, 0xbc, 0xb8, 0xc9, 0x93, 0x3e, 0x44, 0x99, 0x80, 0x3d,
    0xe7, 0xd0, 0xe2, 0x3d, 0x67, 0x02, 0x97, 0x3c, 0x49, 0x17, 0x0d, 0xbe,
    0x76, 0x10, 0x3d, 0xbc, 0xde, 0x9f, 0xda, 0x3d, 0xc5, 0xff, 0x98, 0xbe,
    0xe0, 0xd3, 0xe5, 0x3c, 0x77, 0xf9, 0xac, 0xbe, 0x33, 0x9a, 0x7f, 0x3e,
    0x17, 0xc1, 0x35, 0x3e, 0xf0, 0xfe, 0x06, 0xbe, 0x45, 0x65, 0xce, 0xbc,
    0xd5, 0x78, 0x03, 0x3d, 0xbe, 0xbb, 0x12, 0x3d, 0x9d, 0xaa, 0x08, 0x3f,
    0xfe, 0x6f, 0xd4, 0x3d, 0x6b, 0x50, 0x05, 0x3e, 0x5f, 0x6f, 0xa9, 0x3e,
    0x8d, 0xf3, 0x48, 0xbc, 0x03, 0x23, 0xd3, 0x3d, 0xad, 0x04, 0x10, 0x3e,
    0x38, 0x9d, 0x3d, 0xbe, 0xd1, 0x2e, 0xc7, 0x3b, 0x6d, 0xab, 0xab, 0xbe,
    0x13, 0xed, 0x95, 0x3e, 0x06, 0xa4, 0x8e, 0x3e, 0x25, 0xc2, 0x35, 0xbc,
    0x0e, 0x02, 0xb5, 0xbc, 0xfa, 0x82, 0x46, 0x3d, 0xb4, 0x0f, 0x24, 0x3d,
    0x9b, 0x48, 0xd5, 0x3e, 0x38, 0xb6, 0x79, 0x3e, 0x99, 0x9f, 0x52, 0xbe,
    0x31, 0x5a, 0x5f, 0x3e, 0x5b, 0xa8, 0x47, 0x3e, 0x2b, 0xd7, 0x8d, 0xbc,
    0x09, 0xae, 0xc5, 0x3c, 0xaf, 0xe4, 0x7b, 0xbe, 0x46, 0x5f, 0x0d, 0x3d,
    0xb3, 0x68, 0x96, 0xbe, 0xae, 0x46, 0x8b, 0xbd, 0xab, 0xa0, 0xff, 0x3e,
    0x99, 0xe9, 0x84, 0xbd, 0xba, 0x76, 0x34, 0x3b, 0x3e, 0x7a, 0x03, 0x3e,
    0xfc, 0xb8, 0xe8, 0x3c, 0xea, 0x15, 0xb2, 0x3d, 0x61, 0xb0, 0x80, 0x3e,
    0xc1, 0x3b, 0x10, 0xbf, 0xe0, 0x39, 0x4f, 0xbd, 0x33, 0x12, 0x49, 0x3e,
    0xaa, 0x36, 0x17, 0x3c, 0x18, 0xa5, 0xe2, 0x3d, 0xe7, 0x2c, 0x5c, 0xbe,
    0xea, 0xc4, 0x5d, 0x3c, 0xbc, 0xbe, 0xc2, 0xbe, 0x6c, 0xb1, 0xbe, 0xbb,
    0xbc, 0x6a, 0xb5, 0x3e, 0xeb, 0x36, 0xd9, 0xbe, 0xfd, 0xcf, 0xe5, 0x3c,
    0xf5, 0x13, 0x18, 0x3f, 0x62, 0x28, 0xb7, 0xbc, 0x60, 0xa2, 0x84, 0xbc,
    0xd7, 0xdc, 0x72, 0x3e, 0x7c, 0x46, 0x10, 0xbf, 0x41, 0xf3, 0xcc, 0xbd,
    0x77, 0xe4, 0x92, 0x3d, 0x5b, 0xef, 0x91, 0xbd, 0xb8, 0x3b, 0xc2, 0xbc,
    0x5a, 0x8f, 0x02, 0xbf, 0xf7, 0xe6, 0x04, 0x3d, 0x47, 0x61, 0xb5, 0xbe,
    0x80, 0x2b, 0xc4, 0xbd, 0x3c, 0x14, 0x60, 0x3d, 0xb1, 0xac, 0x2d, 0xbe,
    0xdc, 0xd5, 0x98, 0xbc, 0xed, 0x95, 0x12, 0x3e, 0x35, 0x7d, 0x8f, 0x3d,
    0xd9, 0x41, 0xfc, 0x3c, 0x09, 0x18, 0x25, 0x3d, 0xb3, 0xf0, 0x00, 0xbf,
    0x83, 0x26, 0x0c, 0xbe, 0x27, 0x38, 0x13, 0xbd, 0xb8, 0xfe, 0x49, 0xbc,
    0x6c, 0x5a, 0x75, 0xbc, 0x96, 0x5f, 0x1c, 0xbe, 0xc7, 0xd1, 0x89, 0x3d,
    0xdc, 0xe0, 0xa3, 0xbb, 0x5b, 0x8d, 0x19, 0xbe, 0x51, 0x6e, 0x9f, 0x3d,
    0xb4, 0x74, 0x10, 0xbf, 0x32, 0x3a, 0x46, 0xbe, 0x1d, 0x34, 0x5a, 0x3d,
    0xef, 0xd6, 0xb3, 0xbb, 0xf4, 0x6b, 0xf0, 0x3b, 0x7c, 0x9c, 0xe4, 0xbe,
    0xb6, 0xa1, 0x44, 0x3e, 0x17, 0x79, 0xd2, 0xbe, 0x0c, 0x77, 0x88, 0xbe,
    0x14, 0xfe, 0xbe, 0xbe, 0xbe, 0x54, 0x51, 0xbf, 0xc2, 0xdf, 0x0b, 0xbe,
    0x80, 0x88, 0x3a, 0xbe, 0x48, 0x99, 0x3c, 0x3d, 0x76, 0x8f, 0x0f, 0x3d,
    0x04, 0xc7, 0xac, 0x3d, 0x72, 0x9b, 0x1c, 0xbe, 0x07, 0x85, 0x65, 0xbe,
    0x34, 0xd1, 0xda, 0xbd, 0xcc, 0xe6, 0x45, 0x3d, 0xad, 0xee, 0xa3, 0xbe,
    0x16, 0x7e, 0x83, 0x3d, 0x4d, 0x87, 0x19, 0xbd, 0x66, 0x5f, 0x91, 0xbe,
    0x69, 0xcd, 0x56, 0xbd, 0xa9, 0x65, 0xf3, 0xbd, 0xaf, 0xc0, 0x00, 0xbf,
    0x59, 0x9a, 0xf9, 0xbd, 0xe9, 0x9a, 0x22, 0xbe, 0x05, 0xd7, 0xdf, 0xbc,
    0x2b, 0x58, 0x13, 0xbe, 0xda, 0xc3, 0xf4, 0x3d, 0xf7, 0x71, 0x43, 0x3d,
    0x35, 0x55, 0xcb, 0xbd, 0xcb, 0xa5, 0x99, 0xbe, 0xd8, 0xc9, 0x02, 0xbd,
    0x30, 0xf8, 0xb8, 0xbd, 0x92, 0x55, 0x20, 0xbe, 0xa7, 0x76, 0x7e, 0x3e,
    0xba, 0x6d, 0x55, 0x3b, 0x6b, 0x8f, 0xf3, 0x39, 0x9b, 0x9d, 0x43, 0xbe,
    0x3b, 0xea, 0x35, 0xbf, 0x85, 0x7f, 0x67, 0x3d, 0x87, 0xa9, 0x49, 0xbe,
    0x27, 0x75, 0xa4, 0x3d, 0xdf, 0xea, 0x48, 0xbe, 0x45, 0xaa, 0xba, 0xbd,
    0x3e, 0xd7, 0x24, 0x3e, 0x3f, 0x19, 0x43, 0xbd, 0x3a, 0x47, 0x8c, 0xbe,
    0x1c, 0xaf, 0x87, 0xbd, 0x6a, 0x20, 0xaa, 0xbe, 0x0e, 0xf4, 0xf3, 0xbd,
    0xcc, 0xda, 0x3c, 0x3e, 0x0a, 0xce, 0x44, 0xbe, 0xd8, 0x1c, 0x87, 0xbe,
    0x64, 0x95, 0x94, 0xbe, 0xb9, 0xe1, 0x3e, 0xbf, 0xca, 0xb7, 0x4a, 0xbe,
    0xd8, 0xbd, 0x54, 0xbe, 0x91, 0xdd, 0xfc, 0xbd, 0xc6, 0xab, 0xc1, 0xbd,
    0xb0, 0x5b, 0xf2, 0xbc, 0x64, 0xac, 0xa3, 0xbe, 0xaf, 0x3b, 0xa1, 0xbe,
    0x0a, 0xb3, 0x8f, 0x3e, 0x77, 0x19, 0xba, 0x3c, 0xf8, 0x70, 0x4f, 0x3d,
    0x1f, 0x7c, 0x0d, 0xbe, 0xbe, 0x21, 0x55, 0x3f, 0xfa, 0xdf, 0xc0, 0xb9,
    0x1f, 0x02, 0x27, 0xbe, 0x5b, 0xcc, 0xfe, 0x3b, 0x14, 0x70, 0xc1, 0xbd,
    0xa1, 0xd3, 0x58, 0xbe, 0x6a, 0xd4, 0xf1, 0xbd, 0xd1, 0xa8, 0xa4, 0xbd,
    0xab, 0xca, 0x02, 0x3d, 0x3c, 0x2f, 0x26, 0xbe, 0xc1, 0xda, 0xd4, 0xbd,
    0x5c, 0x6b, 0xfd, 0xbd, 0xb7, 0x3f, 0x82, 0xbe, 0x8b, 0x16, 0x8c, 0x3c,
    0xef, 0x70, 0x36, 0x3e, 0xda, 0x6e, 0xc8, 0x3d, 0x44, 0xb6, 0xbf, 0x3e,
    0x84, 0x5c, 0xd6, 0x3b, 0x2b, 0x6e, 0x3a, 0xbc, 0x52, 0x94, 0x45, 0x3e,
    0xf1, 0x00, 0x8d, 0xbd, 0x20, 0x10, 0x1f, 0x3e, 0x4f, 0x15, 0xdf, 0xbe,
    0xf4, 0x6a, 0x31, 0x3e, 0xc2, 0x1b, 0x7f, 0x3d, 0x8f, 0xee, 0xa4, 0xbd,
    0x47, 0xf9, 0x25, 0x3e, 0x91, 0x45, 0x05, 0x3e, 0x30, 0x67, 0xa3, 0xbe,
    0x56, 0x3b, 0x8b, 0x3d, 0xb5, 0xe0, 0x73, 0x3d, 0xde, 0x65, 0xef, 0xbc,
    0xe7, 0xc2, 0xc9, 0x3e, 0x85, 0xc7, 0x49, 0x3d, 0x0c, 0xe8, 0x7f, 0x3c,
    0x2c, 0xe5, 0x49, 0x3e, 0x85, 0x40, 0x7c, 0xbd, 0xd0, 0x69, 0xd8, 0xbd,
    0x48, 0x44, 0xbf, 0xbe, 0xba, 0x1a, 0x5f, 0x39, 0xb7, 0x6f, 0xb8, 0x3d,
    0xde, 0xa0, 0xe4, 0x3e, 0x3a, 0x21, 0xa4, 0xbd, 0x91, 0xfc, 0x03, 0xbe,
    0x0c, 0xa4, 0x83, 0x3e, 0xe2, 0x87, 0x04, 0xbf, 0x9a, 0x85, 0xfd, 0xbd,
    0x98, 0x62, 0xd7, 0xbc, 0x1d, 0x3d, 0x12, 0xbf, 0xcc, 0x34, 0xc0, 0x3d,
    0x3d, 0x99, 0xc7, 0x3d, 0x91, 0x5c, 0xd4, 0xbe, 0x15, 0x97, 0xe3, 0x3d,
    0x01, 0xcd, 0x58, 0xbe, 0x52, 0xb4, 0xae, 0xbd, 0xdc, 0xa9, 0x47, 0xbe,
    0x96, 0x04, 0x18, 0xbd, 0xc7, 0xf9, 0xa6, 0x3e, 0x24, 0x1c, 0xe8, 0x3d,
    0x54, 0x21, 0x5d, 0xbe, 0x1b, 0xfc, 0x12, 0xbe, 0x05, 0x5f, 0x49, 0xbe,
    0x9c, 0xbd, 0x9a, 0x3e, 0x99, 0x29, 0xff, 0x3d, 0xdc, 0x6e, 0xd8, 0x3c,
    0xc0, 0x52, 0xac, 0x3d, 0x7c, 0x9f, 0x4f, 0x3d, 0x8c, 0x48, 0xb5, 0xbe,
    0x29, 0x97, 0x68, 0xbe, 0xa3, 0xf8, 0x0f, 0x3e, 0xa2, 0x53, 0x0e, 0xbc,
    0x97, 0x04, 0xaa, 0x3d, 0xf8, 0xbc, 0xa4, 0x3e, 0xc6, 0x7c, 0x2e, 0x3e,
    0xb5, 0xfe, 0xee, 0x3d, 0x43, 0x8e, 0x4f, 0xbe, 0xb5, 0xdc, 0xdc, 0xbe,
    0xd6, 0xee, 0xa9, 0xbd, 0x2f, 0x31, 0xe1, 0x3e, 0x56, 0x47, 0x5e, 0x3e,
    0xfc, 0x6e, 0x57, 0xbe, 0x44, 0xc9, 0x7c, 0x3d, 0x02, 0x78, 0x27, 0x3d,
    0xb0, 0x3c, 0x32, 0xbf, 0xd3, 0x58, 0xee, 0xbd, 0x46, 0xf6, 0x26, 0x3e,
    0xc8, 0x13, 0x12, 0xbc, 0x25, 0xb5, 0x1d, 0x3e, 0x58, 0x73, 0x81, 0x3e,
    0x6e, 0xf9, 0x4b, 0x3e, 0x9e, 0xc4, 0x01, 0xbe, 0x16, 0xc4, 0xb9, 0xbc,
    0x4e, 0x80, 0x82, 0xbd, 0xcf, 0x52, 0x73, 0xbc, 0x78, 0x87, 0xf2, 0x3e,
    0x7f, 0x8d, 0x9b, 0x3e, 0x0c, 0x4c, 0x2d, 0xbf, 0x60, 0xe8, 0xa9, 0xbb,
    0xab, 0x1a, 0x19, 0x3e, 0x13, 0x3f, 0x2a, 0xbf, 0x36, 0xe9, 0xcb, 0xbd,
    0x18, 0xc2, 0x2c, 0x3e, 0x9a, 0xfe, 0x05, 0x3c, 0x6b, 0x17, 0x31, 0x3e,
    0x4a, 0xa3, 0xb6, 0xbd, 0x23, 0xd8, 0xb9, 0x3e, 0x8e, 0x70, 0x89, 0xbe,
    0x75, 0x59, 0x1b, 0x3d, 0x47, 0x9a, 0x4b, 0x3b, 0x97, 0xfb, 0x11, 0xbe,
    0x11, 0x57, 0x96, 0x3d, 0x23, 0x6e, 0xc2, 0x3e, 0xc3, 0x63, 0x1b, 0xbe,
    0x6b, 0x51, 0xba, 0xbc, 0x65, 0x76, 0xde, 0x3e, 0x09, 0x01, 0x41, 0xbf,
    0x13, 0x99, 0x82, 0x39, 0x79, 0x59, 0xed, 0xbd, 0x2e, 0x98, 0x95, 0x3d,
    0xeb, 0xd8, 0x53, 0xbe, 0x5a, 0x43, 0xab, 0x3b, 0x41, 0xba, 0xa5, 0x3e,
    0xf2, 0x38, 0xd4, 0xbe, 0x59, 0x07, 0xc8, 0x3d, 0x97, 0xbb, 0xfa, 0x3e,
    0xe4, 0x2d, 0x0a, 0xbe, 0x24, 0xc3, 0xc8, 0xbd, 0x0f, 0xb8, 0x65, 0x3e,
    0xfd, 0xc4, 0xff, 0xbe, 0x18, 0x74, 0x00, 0x3e, 0x8d, 0xf2, 0x73, 0x3e,
    0xb3, 0xb1, 0x1b, 0xbf, 0xcb, 0xc6, 0x1e, 0x3e, 0x75, 0x2a, 0xa6, 0xbe,
    0xe1, 0x04, 0xd3, 0xbb, 0x7f, 0x1a, 0x89, 0xbe, 0xbd, 0xde, 0xd3, 0xbc,
    0xd3, 0x73, 0x12, 0x3d, 0xa5, 0x75, 0x67, 0x3d, 0x38, 0x2a, 0x2c, 0x3e,
    0xb6, 0x26, 0x25, 0x3e, 0xb8, 0xf0, 0x16, 0x3d, 0x5d, 0x2d, 0xb7, 0xbc,
    0x2c, 0xaf, 0xff, 0x3d, 0x5a, 0x18, 0xe2, 0xbe, 0x99, 0x97, 0xc9, 0x3d,
    0xa8, 0x2b, 0xa1, 0x3d, 0xee, 0x68, 0xe9, 0xbe, 0x14, 0xc9, 0x2f, 0xbc,
    0xc1, 0x2c, 0x61, 0xbc, 0x18, 0xcf, 0x36, 0xbd, 0xe1, 0x60, 0xde, 0xbc,
    0x54, 0x00, 0x9a, 0xbe, 0x7c, 0x61, 0x6f, 0xbe, 0xcb, 0xbf, 0x95, 0xbe,
    0x79, 0x95, 0xa5, 0xbe, 0x01, 0x4e, 0xfe, 0x3f, 0x7f, 0xe8, 0xd5, 0xbe,
    0xa8, 0x1b, 0xe5, 0xbe, 0xcb, 0x4b, 0x2c, 0xbe, 0x91, 0xf7, 0x57, 0x3f,
    0x4a, 0x58, 0x96, 0xbe, 0x94, 0x65, 0xea, 0xbc, 0x58, 0xfa, 0x83, 0x3e,
    0x44, 0xb9, 0x0a, 0xbe, 0x43, 0xa1, 0x04, 0xbe, 0x46, 0xca, 0xb2, 0xbe,
    0x0c, 0x73, 0xad, 0x3c, 0xe8, 0x46, 0x8f, 0xbd, 0x1e, 0x53, 0xe4, 0xbd,
    0x84, 0xf3, 0xf1, 0x3d, 0x6e, 0xd7, 0xd0, 0xbe, 0x52, 0x0d, 0xae, 0x3e,
    0x64, 0xeb, 0xad, 0xbd, 0x20, 0x68, 0x80, 0xbe, 0x1a, 0x64, 0xd7, 0x3a,
    0x2d, 0x34, 0x0c, 0x40, 0x65, 0x4b, 0xa2, 0xbe, 0x11, 0x81, 0x7a, 0xbe,
    0x59, 0x0d, 0x6d, 0x3e, 0x53, 0xc6, 0x45, 0xbe, 0x0e, 0x0b, 0x9c, 0xbe,
    0x44, 0x10, 0xd0, 0xbe, 0x92, 0x73, 0xd0, 0xbd, 0x18, 0xe3, 0xc0, 0xbe,
    0x22, 0x33, 0x20, 0xbe, 0x65, 0xcb, 0x9c, 0x3d, 0xe7, 0xc3, 0x2e, 0xbd,
    0x08, 0xe3, 0x9c, 0x3e, 0x36, 0x97, 0xa1, 0xbe, 0xaf, 0xaf, 0x82, 0xbe,
    0x66, 0x91, 0xeb, 0x3d, 0xf2, 0xb5, 0x00, 0x40, 0xa1, 0x7e, 0x84, 0xbe,
    0xf2, 0xc4, 0x96, 0xbe, 0x7a, 0xe2, 0xdc, 0x3e, 0x7c, 0xde, 0xa7, 0xbd,
    0xca, 0x74, 0x9f, 0xbc, 0x64, 0xf3, 0xec, 0xbe, 0xc1, 0x7f, 0x15, 0xbe,
    0x1c, 0xbb, 0xdd, 0xbe, 0x31, 0xaa, 0x9e, 0xbe, 0xda, 0x80, 0x45, 0xbd,
    0xfd, 0xb5, 0x40, 0xbe, 0x7d, 0xe1, 0xac, 0x3e, 0xab, 0x0f, 0xf8, 0xbe,
    0x1f, 0x53, 0xb2, 0x3d, 0xb5, 0x94, 0xa3, 0x3c, 0x7f, 0x49, 0x04, 0x40,
    0x5c, 0xe7, 0x86, 0x3d, 0x57, 0xcb, 0x1e, 0x3d, 0xeb, 0x93, 0x03, 0x3f,
    0xce, 0xa2, 0x99, 0xbe, 0x83, 0xb1, 0xc1, 0xbe, 0xda, 0x69, 0x01, 0xbe,
    0xa9, 0x8c, 0xbd, 0xbe, 0xfa, 0x0a, 0xd3, 0xbe, 0xeb, 0x59, 0xa0, 0xbe,
    0x8e, 0xc1, 0x71, 0x3b, 0xa2, 0x2b, 0x2c, 0xbd, 0x58, 0x75, 0xd4, 0x3e,
    0x4b, 0x30, 0x93, 0xbe, 0xa0, 0xb9, 0x14, 0xbe, 0x86, 0x84, 0x0b, 0xbe,
    0xcb, 0x41, 0x5a, 0x3f, 0x32, 0x8c, 0x6c, 0xbd, 0x3e, 0x82, 0x45, 0xbd,
    0x9a, 0x68, 0x2f, 0x3f, 0xe1, 0x4a, 0xee, 0xbd, 0x65, 0x7f, 0xa5, 0x3d,
    0xc6, 0x2d, 0xcb, 0xbe, 0x39, 0x4d, 0x40, 0xbe, 0x35, 0xc0, 0xcc, 0xbe,
    0x56, 0x6a, 0xe9, 0xbd, 0x69, 0xe2, 0x8d, 0xbe, 0x97, 0x90, 0x87, 0xbd,
    0xe3, 0xf6, 0x0d, 0x3f, 0x90, 0x73, 0x25, 0x3b, 0x25, 0x3e, 0xa2, 0xbc,
    0x6f, 0x2c, 0x6e, 0xbe, 0xcf, 0xc4, 0x80, 0x3f, 0x86, 0xe6, 0x16, 0xbe,
    0x16, 0x97, 0x1c, 0xbe, 0x32, 0xf4, 0x02, 0x3f, 0xea, 0x84, 0xe9, 0xbe,
    0xfc, 0x81, 0xc6, 0xbd, 0xa0, 0x13, 0xbc, 0xbe, 0x84, 0x76, 0x14, 0xbe,
    0xee, 0x99, 0xcb, 0xbe, 0x06, 0x4a, 0x9d, 0xbe, 0xd9, 0x7e, 0x8c, 0xbe,
    0xb4, 0x9a, 0xee, 0xbd, 0x35, 0xa1, 0x29, 0x3e, 0x09, 0xd7, 0xc3, 0xbe,
    0x61, 0xed, 0x9e, 0xbd, 0x04, 0xb0, 0xd0, 0x3d, 0xa6, 0xda, 0x63, 0x3f,
    0x80, 0x17, 0xce, 0xbe, 0x26, 0x45, 0x6d, 0xbe, 0x12, 0x2c, 0x2e, 0x3e,
    0xe5, 0x4b, 0xbc, 0xbe, 0x1d, 0x0a, 0xd3, 0xbe, 0xa1, 0xff, 0xec, 0xbe,
    0x9e, 0x82, 0xb0, 0xbe, 0xbe, 0xd0, 0x5c, 0xbd, 0x43, 0xc9, 0x8b, 0x3e,
    0x84, 0x9f, 0x4c, 0xbe, 0x96, 0x86, 0x5d, 0x3e, 0x9e, 0x91, 0x91, 0x3e,
    0x36, 0xa6, 0xd6, 0xbe, 0xf3, 0x0c, 0x29, 0xbe, 0x23, 0xbe, 0x0e, 0x3e,
    0xd7, 0x90, 0x22, 0x3f, 0x40, 0xbd, 0xb6, 0xbd, 0xd1, 0x1e, 0x2b, 0x3e,
    0xc8, 0xb0, 0x97, 0xbd, 0xfa, 0x72, 0xa0, 0xbc, 0xfa, 0x85, 0x2e, 0xbe,
    0xbb, 0xa6, 0xbd, 0xbd, 0x4b, 0x7a, 0x3f, 0xbe, 0x93, 0xc0, 0xaa, 0x3c,
    0x22, 0x94, 0xad, 0x3e, 0x9f, 0x13, 0x98, 0xbe, 0x1a, 0x9d, 0xf4, 0x3a,
    0x1c, 0x0b, 0x24, 0x3d, 0x86, 0xa9, 0x85, 0xbe, 0x72, 0xf2, 0x9b, 0x3e,
    0xf6, 0x44, 0x63, 0x3e, 0x7a, 0xfa, 0x1f, 0x3f, 0x0d, 0xfb, 0xc2, 0x3c,
    0x47, 0xb2, 0x06, 0x3e, 0x17, 0x9c, 0x3b, 0xbe, 0x87, 0xf2, 0xbe, 0xbc,
    0xdc, 0x1a, 0x71, 0xbe, 0xf2, 0xd7, 0xf9, 0xbd, 0xed, 0x11, 0x15, 0xbe,
    0x93, 0x01, 0x89, 0x3e, 0x6b, 0x90, 0x21, 0x3e, 0x0a, 0x71, 0x87, 0xbe,
    0x47, 0xfd, 0x3c, 0xbe, 0x9c, 0xc0, 0x28, 0x3e, 0x5a, 0xaa, 0x1c, 0xbd,
    0x0f, 0xeb, 0x9a, 0x3e, 0x0f, 0x34, 0x96, 0x3e, 0x27, 0xc1, 0x0c, 0x3f,
    0x33, 0xdc, 0x87, 0x3e, 0x5b, 0x1b, 0x90, 0x3d, 0xce, 0xdb, 0xcd, 0xbd,
    0x53, 0x79, 0x98, 0xbd, 0x4d, 0xf3, 0x5f, 0xbe, 0xc7, 0x51, 0x47, 0xbe,
    0x41, 0x6a, 0x00, 0xbe, 0xe8, 0x2b, 0x2c, 0x3e, 0x71, 0x83, 0x32, 0x3e,
    0xea, 0xcb, 0xcb, 0xbe, 0x47, 0x5a, 0xc7, 0xbd, 0xc1, 0xe0, 0x9a, 0x3e,
    0xee, 0x93, 0x49, 0x3d, 0x4d, 0xc9, 0x63, 0x3e, 0x00, 0xf4, 0xaa, 0x3e,
    0x1a, 0xf1, 0x74, 0x3f, 0x37, 0xaa, 0x03, 0x3e, 0xae, 0x52, 0x0a, 0x3e,
    0xf7, 0xa1, 0x05, 0xbe, 0x91, 0x0a, 0x8c, 0xbc, 0x0e, 0xfe, 0xcd, 0x3d,
    0x80, 0x0c, 0x3f, 0xbd, 0x8b, 0xf0, 0x50, 0xbd, 0x7f, 0xf0, 0x8f, 0xbc,
    0xb1, 0x4c, 0xbb, 0x3e, 0xd4, 0xf9, 0x4e, 0xbe, 0xaf, 0xa7, 0xd9, 0x3b,
    0xf4, 0xa3, 0x8e, 0x3e, 0xc8, 0x67, 0x67, 0xbd, 0x28, 0x3a, 0x87, 0xbc,
    0xdc, 0xb0, 0x12, 0x3f, 0x7b, 0xd7, 0x6e, 0xbd, 0xef, 0x77, 0x42, 0xbc,
    0xe2, 0x92, 0x0f, 0x3e, 0x97, 0x25, 0x5c, 0xbe, 0x87, 0x58, 0xa1, 0xbd,
    0xcc, 0xe3, 0x4c, 0xbe, 0x13, 0x2d, 0x99, 0xbd, 0xcb, 0xbe, 0xfa, 0xbd,
    0x2e, 0xf0, 0x89, 0x3c, 0x0c, 0x00, 0xce, 0x3e, 0xc1, 0x35, 0x82, 0xbe,
    0xaa, 0xbd, 0xfe, 0xbd, 0x56, 0x2e, 0x8d, 0x3e, 0xc9, 0xd6, 0xc8, 0x3d,
    0x49, 0xf3, 0x1f, 0x3e, 0x64, 0xde, 0x55, 0x3d, 0x84, 0x08, 0x4b, 0xbe,
    0x83, 0x3b, 0x69, 0x3d, 0xb8, 0xa7, 0x75, 0x3e, 0xad, 0x26, 0x42, 0xbe,
    0x3c, 0xf4, 0x92, 0xbe, 0x97, 0x03, 0x59, 0xbe, 0x8c, 0x79, 0x07, 0xbd,
    0x4f, 0xb5, 0x2b, 0xbe, 0x2c, 0xfe, 0x74, 0x3c, 0x64, 0xa7, 0x8b, 0xbd,
    0xb7, 0xde, 0x93, 0xbe, 0x14, 0x0b, 0xcf, 0xbe, 0xa8, 0x37, 0x97, 0xbe,
    0xa9, 0xc5, 0x86, 0x3d, 0x75, 0xff, 0x15, 0x3e, 0x0d, 0x41, 0xe9, 0x3d,
    0x86, 0x32, 0x4c, 0xbe, 0x9c, 0x55, 0xb5, 0x3a, 0x43, 0x6d, 0x69, 0xbe,
    0xf2, 0x74, 0xbc, 0xbd, 0x75, 0x86, 0x34, 0xbe, 0x01, 0x86, 0xa9, 0xbe,
    0x9a, 0xa7, 0x3a, 0x3e, 0x0e, 0x72, 0xc5, 0xbe, 0x2b, 0x32, 0xa0, 0xbe,
    0x69, 0x27, 0x51, 0xbe, 0x02, 0xcf, 0x69, 0xbd, 0x97, 0x19, 0xc5, 0xbd,
    0x80, 0x63, 0x92, 0xbe, 0x11, 0xba, 0x4c, 0xbc, 0x31, 0x53, 0xf4, 0xbc,
    0x5b, 0x2e, 0xb7, 0x3d, 0xbc, 0x0f, 0x70, 0xbe, 0xdc, 0xf6, 0x8a, 0xbb,
    0x17, 0x94, 0xa2, 0x3d, 0xc2, 0xbf, 0xd5, 0xba, 0x7c, 0x53, 0xf4, 0xbc,
    0x89, 0xd3, 0x66, 0xbd, 0x8f, 0x5d, 0x80, 0xbe, 0xeb, 0x4c, 0x28, 0xbe,
    0x66, 0xc1, 0x3e, 0xbe, 0x51, 0x27, 0x01, 0x3c, 0x40, 0x8b, 0x56, 0xbe,
    0x3a, 0x97, 0x0e, 0xbe, 0x67, 0x10, 0x4c, 0xbe, 0x25, 0x22, 0x86, 0xbe,
    0x3e, 0xde, 0x8c, 0x3d, 0x07, 0x64, 0xc7, 0xbd, 0x63, 0x2d, 0x8e, 0x3d,
    0xa7, 0x5c, 0x02, 0xbe, 0xc3, 0x5a, 0x55, 0x3d, 0xb1, 0x13, 0x93, 0x3d,
    0x21, 0xac, 0x29, 0x3d, 0xf5, 0x85, 0x1a, 0xbd, 0xee, 0xc3, 0x8e, 0xbe,
    0xb6, 0x24, 0xa3, 0xbd, 0x02, 0x34, 0x98, 0x3d, 0xb3, 0x7a, 0xd3, 0x3c,
    0xf4, 0xea, 0x00, 0x3e, 0xb7, 0x47, 0x00, 0xbc, 0xc8, 0x35, 0xd8, 0x3c,
    0xe8, 0xb9, 0x13, 0xbd, 0x3e, 0x36, 0x13, 0xbe, 0xac, 0xdf, 0x8f, 0x3d,
    0x49, 0x17, 0xb1, 0xbc, 0x45, 0xae, 0x89, 0xbe, 0x6c, 0xe4, 0xdd, 0x3d,
    0xed, 0x8c, 0x73, 0xbe, 0xb0, 0x61, 0x0f, 0x3e, 0x3f, 0x10, 0xc6, 0x3d,
    0x36, 0x7a, 0x0b, 0xbe, 0xd8, 0xbf, 0xdc, 0x3d, 0x39, 0x6f, 0x15, 0xbe,
    0x5b, 0x26, 0x07, 0xbe, 0xdb, 0xc6, 0x02, 0xbe, 0x1f, 0x63, 0xb7, 0x3c,
    0x58, 0x9f, 0x6e, 0x3d, 0x76, 0xc6, 0x30, 0xbe, 0x11, 0xe2, 0x4d, 0x3d,
    0xf8, 0x05, 0xb1, 0x3d, 0x2c, 0x06, 0x16, 0x3e, 0xc6, 0x9e, 0xd8, 0xbc,
    0xc7, 0x4b, 0xd7, 0x3c, 0x55, 0xe2, 0x81, 0xbe, 0x2d, 0x92, 0xc7, 0xbb,
    0x5f, 0x9a, 0x15, 0xbe, 0x09, 0x68, 0x9e, 0xbe, 0x6a, 0xc3, 0x92, 0xbe,
    0x12, 0x3c, 0x5c, 0x3d, 0x7f, 0xa4, 0x1f, 0xbe, 0xe1, 0xe4, 0x2e, 0x3d,
    0x0a, 0xd0, 0x55, 0xbe, 0x6d, 0x6d, 0xc5, 0xbc, 0x2f, 0x63, 0x93, 0x3c,
    0x6a, 0x0f, 0x0c, 0xbe, 0xc8, 0x61, 0x08, 0xbd, 0x93, 0x54, 0xee, 0x3d,
    0x6e, 0x24, 0x29, 0x3d, 0x4a, 0x1d, 0x17, 0xbd, 0x51, 0xab, 0x56, 0xbe,
    0x20, 0x75, 0x9a, 0x3d, 0xaf, 0x28, 0x43, 0xbd, 0xb5, 0xde, 0x96, 0xbe,
    0x03, 0x87, 0x43, 0xbc, 0x77, 0x0a, 0x81, 0xbd, 0x9d, 0x58, 0x63, 0xbc,
    0xae, 0x04, 0x8b, 0x3e, 0xc2, 0x34, 0x95, 0xbd, 0x74, 0x78, 0xb0, 0x3d,
    0x95, 0xa9, 0x51, 0x3d, 0x72, 0x59, 0x21, 0xbe, 0x24, 0x39, 0xaa, 0x3d,
    0xa8, 0xfe, 0xb9, 0x3d, 0x00, 0xca, 0xa4, 0xbe, 0x67, 0x90, 0x12, 0x3e,
    0x90, 0xe2, 0xbe, 0x3b, 0x9e, 0x81, 0x64, 0xbe, 0xe0, 0xa8, 0xd6, 0x3c,
    0x9e, 0xd0, 0x02, 0xbe, 0xce, 0x91, 0x67, 0x3e, 0x7e, 0x7d, 0x0e, 0x3e,
    0xfc, 0x19, 0xcc, 0xbd, 0xca, 0xaf, 0x03, 0xbe, 0xe4, 0xad, 0x75, 0xbd,
    0x2b, 0x0e, 0x7c, 0xbd, 0xc7, 0x16, 0x3a, 0x3c, 0xc4, 0xbf, 0x9e, 0xbd,
    0xe0, 0xe4, 0x94, 0xbd, 0xec, 0x78, 0x1b, 0xbe, 0x36, 0x91, 0x68, 0xbe,
    0xdb, 0xf2, 0x7b, 0xbd, 0xae, 0x06, 0x85, 0x3d, 0xbe, 0xc0, 0xd8, 0xbd,
    0x08, 0x71, 0x0d, 0xbe, 0xff, 0x9a, 0x99, 0xbe, 0x2d, 0x05, 0x5d, 0xbe,
    0xe6, 0x71, 0x5a, 0xbe, 0x7b, 0x97, 0x89, 0xbe, 0x4f, 0xb0, 0x48, 0xbf,
    0xdf, 0xc3, 0xa5, 0xbe, 0xda, 0xf4, 0x3d, 0x3d, 0x6b, 0x20, 0x99, 0xbd,
    0xc1, 0x9a, 0x58, 0xbe, 0x15, 0x22, 0x86, 0xbe, 0xb6, 0x3b, 0x1b, 0xbe,
    0x7f, 0xa4, 0x16, 0xbf, 0xbf, 0xe5, 0x48, 0xbe, 0x0f, 0xff, 0x21, 0xbe,
    0x7f, 0x16, 0x9f, 0xbf, 0x36, 0x09, 0xff, 0xbe, 0xef, 0xae, 0x9b, 0xbd,
    0x98, 0x46, 0x82, 0xbe, 0xe9, 0xdd, 0x29, 0xbd, 0x56, 0x3d, 0x35, 0xbc,
    0xda, 0x4a, 0x00, 0x3e, 0x88, 0x48, 0x18, 0xbe, 0x9a, 0xda, 0x84, 0xbe,
    0xdb, 0x3b, 0xf0, 0xbb, 0x4c, 0xd2, 0xc5, 0xbd, 0x6c, 0x3e, 0x27, 0x3d,
    0xd2, 0x71, 0xb0, 0xbc, 0xa7, 0x37, 0x91, 0xbe, 0xd1, 0x98, 0xb6, 0xbd,
    0xb1, 0xf5, 0x08, 0xbe, 0x4b, 0x4a, 0x8c, 0xbf, 0x1c, 0xae, 0x8b, 0xbe,
    0x5c, 0x2b, 0x0c, 0xbe, 0xef, 0x4a, 0x26, 0xbe, 0x8a, 0x95, 0x10, 0xbe,
    0x17, 0xde, 0xd7, 0xbc, 0xaa, 0x23, 0x9f, 0x3c, 0x48, 0x59, 0x05, 0xbd,
    0xa3, 0x75, 0xfc, 0x3d, 0x53, 0x6d, 0x6c, 0xbd, 0xaf, 0xae, 0xb6, 0xbd,
    0x99, 0x9c, 0x2c, 0xbe, 0xcf, 0x59, 0x15, 0xbe, 0xeb, 0x90, 0x02, 0xbd,
    0xcf, 0x54, 0x0a, 0xbe, 0x4d, 0x9e, 0x98, 0xbe, 0xc4, 0x8c, 0x76, 0xbf,
    0x28, 0x13, 0x5a, 0xbe, 0x4c, 0x47, 0xe7, 0xbd, 0xc8, 0xc0, 0x38, 0xbe,
    0x1a, 0xb7, 0x83, 0xbe, 0x77, 0x3d, 0xd9, 0xbc, 0x4e, 0x7f, 0xda, 0x3c,
    0xee, 0x16, 0xc8, 0xbc, 0xc8, 0xa4, 0x67, 0xbe, 0x15, 0x73, 0x1a, 0xbd,
    0x50, 0x5e, 0x89, 0xbe, 0x89, 0x1a, 0x3c, 0xbe, 0xb0, 0xce, 0x5c, 0x3c,
    0x72, 0x52, 0x0c, 0xbe, 0x64, 0xef, 0x20, 0xbe, 0xff, 0x43, 0xde, 0xbe,
    0x57, 0x1c, 0x7a, 0xbf, 0xb6, 0x67, 0xcb, 0xbe, 0x01, 0x02, 0x85, 0x3d,
    0xa9, 0x36, 0x85, 0xbe, 0xfb, 0xc7, 0x08, 0xbd, 0xff, 0x5e, 0x03, 0x3c,
    0x05, 0x11, 0x73, 0xbe, 0xc1, 0xe9, 0x08, 0xbf, 0x27, 0xd0, 0xf4, 0x3d,
    0xff, 0x31, 0xec, 0x3d, 0x2e, 0x88, 0xd6, 0x3d, 0x95, 0x88, 0x90, 0xbe,
    0x05, 0x5f, 0xdb, 0x3e, 0x82, 0x94, 0x84, 0x3d, 0x56, 0xd4, 0x8b, 0xbe,
    0x54, 0x75, 0xa9, 0x3d, 0x7c, 0x6a, 0x4c, 0xbe, 0xee, 0xdb, 0x1c, 0x3c,
    0x65, 0x67, 0x3d, 0xbd, 0x3c, 0x79, 0x82, 0x3e, 0xea, 0xf3, 0xe3, 0xbb,
    0x0f, 0xd0, 0x3a, 0xbd, 0x13, 0xa8, 0xfa, 0xbc, 0xdc, 0x71, 0xb7, 0xbe,
    0x55, 0x80, 0xa8, 0xbd, 0xc0, 0x9d, 0x75, 0xbd, 0x9a, 0xac, 0x8b, 0xbc,
    0x8e, 0x2a, 0xc4, 0xba, 0x1d, 0x3b, 0x72, 0x3e, 0x15, 0x77, 0xeb, 0xbb,
    0x3c, 0x2c, 0x6b, 0xbb, 0xe1, 0xac, 0x5a, 0x3c, 0x21, 0xd0, 0xb9, 0x3c,
    0x4c, 0x77, 0x2e, 0x3e, 0x2c, 0x9c, 0x7f, 0xbe, 0x19, 0xec, 0x20, 0x3e,
    0x4e, 0xf8, 0xa0, 0xbc, 0x16, 0xa6, 0x91, 0xbd, 0xe6, 0xfb, 0x6f, 0x3d,
    0xb4, 0x4a, 0xf0, 0x3d, 0x8c, 0x81, 0x9b, 0xbe, 0x24, 0x1f, 0xb7, 0xbd,
    0xfa, 0x5b, 0x27, 0x3e, 0xbd, 0x08, 0x84, 0x3e, 0x96, 0x31, 0x8e, 0x3e,
    0x4f, 0xa8, 0x51, 0x3c, 0x81, 0xe9, 0x3d, 0x3e, 0x4b, 0x7a, 0x18, 0x3e,
    0x09, 0xc0, 0xdd, 0xbd, 0xfb, 0x06, 0xc6, 0xbb, 0x14, 0x5c, 0x85, 0xbe,
    0xe4, 0x7f, 0x8b, 0x3d, 0x62, 0xfd, 0xff, 0xff, 0x10, 0x00, 0x00, 0x00,
    0x07, 0x00, 0x00, 0x00, 0x14, 0x00, 0x00, 0x00, 0x2c, 0x00, 0x00, 0x00,
    0x02, 0x00, 0x00, 0x00, 0x10, 0x00, 0x00, 0x00, 0x70, 0x00, 0x00, 0x00,
    0x17, 0x00, 0x00, 0x00, 0x73, 0x65, 0x71, 0x75, 0x65, 0x6e, 0x74, 0x69,
    0x61, 0x6c, 0x2f, 0x64, 0x65, 0x6e, 0x73, 0x65, 0x2f, 0x4d, 0x61, 0x74,
    0x4d, 0x75, 0x6c, 0x00, 0xcc, 0xfc, 0xff, 0xff, 0xd6, 0xfd, 0xff, 0xff,
    0x04, 0x00, 0x00, 0x00, 0x08, 0x00, 0x00, 0x00, 0xff, 0xff, 0xff, 0xff,
    0x70, 0x00, 0x00, 0x00, 0x00, 0x00, 0x0e, 0x00, 0x18, 0x00, 0x08, 0x00,
    0x07, 0x00, 0x0c, 0x00, 0x10, 0x00, 0x14, 0x00, 0x0e, 0x00, 0x00, 0x00,
    0x00, 0x00, 0x00, 0x02, 0x10, 0x00, 0x00, 0x00, 0x06, 0x00, 0x00, 0x00,
    0x10, 0x00, 0x00, 0x00, 0x2c, 0x00, 0x00, 0x00, 0x01, 0x00, 0x00, 0x00,
    0x02, 0x00, 0x00, 0x00, 0x18, 0x00, 0x00, 0x00, 0x73, 0x65, 0x71, 0x75,
    0x65, 0x6e, 0x74, 0x69, 0x61, 0x6c, 0x2f, 0x66, 0x6c, 0x61, 0x74, 0x74,
    0x65, 0x6e, 0x2f, 0x43, 0x6f, 0x6e, 0x73, 0x74, 0x00, 0x00, 0x00, 0x00,
    0x34, 0xfd, 0xff, 0xff, 0x3e, 0xfe, 0xff, 0xff, 0x04, 0x00, 0x00, 0x00,
    0x10, 0x00, 0x00, 0x00, 0x5f, 0x0f, 0x21, 0xc0, 0x3c, 0x99, 0x5f, 0x40,
    0x03, 0xf2, 0xb6, 0xbf, 0x14, 0x6a, 0x3f, 0xbe, 0x26, 0xfe, 0xff, 0xff,
    0x10, 0x00, 0x00, 0x00, 0x05, 0x00, 0x00, 0x00, 0x10, 0x00, 0x00, 0x00,
    0x44, 0x00, 0x00, 0x00, 0x01, 0x00, 0x00, 0x00, 0x04, 0x00, 0x00, 0x00,
    0x32, 0x00, 0x00, 0x00, 0x73, 0x65, 0x71, 0x75, 0x65, 0x6e, 0x74, 0x69,
    0x61, 0x6c, 0x2f, 0x64, 0x65, 0x6e, 0x73, 0x65, 0x5f, 0x31, 0x2f, 0x42,
    0x69, 0x61, 0x73, 0x41, 0x64, 0x64, 0x2f, 0x52, 0x65, 0x61, 0x64, 0x56,
    0x61, 0x72, 0x69, 0x61, 0x62, 0x6c, 0x65, 0x4f, 0x70, 0x2f, 0x72, 0x65,
    0x73, 0x6f, 0x75, 0x72, 0x63, 0x65, 0x00, 0x00, 0xa8, 0xfd, 0xff, 0xff,
    0xb2, 0xfe, 0xff, 0xff, 0x04, 0x00, 0x00, 0x00, 0x40, 0x00, 0x00, 0x00,
    0x1e, 0x4d, 0x11, 0x40, 0x82, 0xcd, 0x5b, 0xbe, 0x0d, 0x6f, 0x1d, 0x3f,
    0x10, 0xaa, 0x2c, 0x3f, 0x97, 0x90, 0x91, 0x40, 0x61, 0x4d, 0xc8, 0xbd,
    0x12, 0x22, 0x37, 0x40, 0xd5, 0x9e, 0xfe, 0xbe, 0x05, 0xbc, 0x8b, 0xbe,
    0xc4, 0x25, 0x3c, 0x40, 0xd3, 0x0c, 0x04, 0x3f, 0x3d, 0x13, 0x2f, 0xbe,
    0x8a, 0x4d, 0xa0, 0x3f, 0x09, 0x0e, 0x06, 0x3e, 0xa1, 0xd5, 0x99, 0xbe,
    0xb3, 0x16, 0x75, 0xbf, 0xca, 0xfe, 0xff, 0xff, 0x10, 0x00, 0x00, 0x00,
    0x04, 0x00, 0x00, 0x00, 0x10, 0x00, 0x00, 0x00, 0x44, 0x00, 0x00, 0x00,
    0x01, 0x00, 0x00, 0x00, 0x10, 0x00, 0x00, 0x00, 0x30, 0x00, 0x00, 0x00,
    0x73, 0x65, 0x71, 0x75, 0x65, 0x6e, 0x74, 0x69, 0x61, 0x6c, 0x2f, 0x64,
    0x65, 0x6e, 0x73, 0x65, 0x2f, 0x42, 0x69, 0x61, 0x73, 0x41, 0x64, 0x64,
    0x2f, 0x52, 0x65, 0x61, 0x64, 0x56, 0x61, 0x72, 0x69, 0x61, 0x62, 0x6c,
    0x65, 0x4f, 0x70, 0x2f, 0x72, 0x65, 0x73, 0x6f, 0x75, 0x72, 0x63, 0x65,
    0x00, 0x00, 0x00, 0x00, 0x4c, 0xfe, 0xff, 0xff, 0x56, 0xff, 0xff, 0xff,
    0x04, 0x00, 0x00, 0x00, 0x40, 0x00, 0x00, 0x00, 0xed, 0xc5, 0x04, 0xc0,
    0xdc, 0xa1, 0x84, 0xbf, 0x09, 0xfb, 0x44, 0xbe, 0x95, 0xbf, 0xf8, 0x3d,
    0xff, 0x20, 0xb3, 0x3f, 0xaf, 0x3c, 0x78, 0x3f, 0xa4, 0x06, 0xd5, 0xbf,
    0xf8, 0xc1, 0xe8, 0xbe, 0x54, 0x37, 0xdc, 0x3f, 0x6a, 0x85, 0x05, 0x3f,
    0x1e, 0x96, 0xed, 0xbf, 0x66, 0x69, 0x1c, 0x40, 0x95, 0x94, 0x15, 0xbf,
    0x73, 0x87, 0xa7, 0xbf, 0x35, 0xc3, 0xff, 0x3f, 0x5e, 0xf5, 0xa3, 0xbf,
    0x6e, 0xff, 0xff, 0xff, 0x10, 0x00, 0x00, 0x00, 0x03, 0x00, 0x00, 0x00,
    0x10, 0x00, 0x00, 0x00, 0x48, 0x00, 0x00, 0x00, 0x01, 0x00, 0x00, 0x00,
    0x10, 0x00, 0x00, 0x00, 0x33, 0x00, 0x00, 0x00, 0x73, 0x65, 0x71, 0x75,
    0x65, 0x6e, 0x74, 0x69, 0x61, 0x6c, 0x2f, 0x63, 0x6f, 0x6e, 0x76, 0x32,
    0x64, 0x5f, 0x31, 0x2f, 0x42, 0x69, 0x61, 0x73, 0x41, 0x64, 0x64, 0x2f,
    0x52, 0x65, 0x61, 0x64, 0x56, 0x61, 0x72, 0x69, 0x61, 0x62, 0x6c, 0x65,
    0x4f, 0x70, 0x2f, 0x72, 0x65, 0x73, 0x6f, 0x75, 0x72, 0x63, 0x65, 0x00,
    0x04, 0x00, 0x06, 0x00, 0x04, 0x00, 0x00, 0x00, 0x00, 0x00, 0x06, 0x00,
    0x08, 0x00, 0x04, 0x00, 0x06, 0x00, 0x00, 0x00, 0x04, 0x00, 0x00, 0x00,
    0x20, 0x00, 0x00, 0x00, 0x41, 0x75, 0x84, 0xbf, 0x65, 0x49, 0x24, 0xc0,
    0x39, 0x0c, 0x2a, 0xc0, 0x8f, 0x0f, 0x3c, 0xbf, 0x7a, 0x21, 0x8a, 0xbf,
    0x8b, 0xc8, 0x16, 0xbe, 0x3e, 0x9c, 0x1b, 0xc0, 0x1e, 0xd5, 0x05, 0xc0,
    0x00, 0x00, 0x0e, 0x00, 0x14, 0x00, 0x04, 0x00, 0x00, 0x00, 0x08, 0x00,
    0x0c, 0x00, 0x10, 0x00, 0x0e, 0x00, 0x00, 0x00, 0x10, 0x00, 0x00, 0x00,
    0x02, 0x00, 0x00, 0x00, 0x10, 0x00, 0x00, 0x00, 0x44, 0x00, 0x00, 0x00,
    0x01, 0x00, 0x00, 0x00, 0x08, 0x00, 0x00, 0x00, 0x31, 0x00, 0x00, 0x00,
    0x73, 0x65, 0x71, 0x75, 0x65, 0x6e, 0x74, 0x69, 0x61, 0x6c, 0x2f, 0x63,
    0x6f, 0x6e, 0x76, 0x32, 0x64, 0x2f, 0x42, 0x69, 0x61, 0x73, 0x41, 0x64,
    0x64, 0x2f, 0x52, 0x65, 0x61, 0x64, 0x56, 0x61, 0x72, 0x69, 0x61, 0x62,
    0x6c, 0x65, 0x4f, 0x70, 0x2f, 0x72, 0x65, 0x73, 0x6f, 0x75, 0x72, 0x63,
    0x65, 0x00, 0x00, 0x00, 0x90, 0xff, 0xff, 0xff, 0x14, 0x00, 0x18, 0x00,
    0x04, 0x00, 0x00, 0x00, 0x08, 0x00, 0x0c, 0x00, 0x10, 0x00, 0x00, 0x00,
    0x00, 0x00, 0x14, 0x00, 0x14, 0x00, 0x00, 0x00, 0x14, 0x00, 0x00, 0x00,
    0x01, 0x00, 0x00, 0x00, 0x20, 0x00, 0x00, 0x00, 0x44, 0x00, 0x00, 0x00,
    0x2c, 0x00, 0x00, 0x00, 0x04, 0x00, 0x00, 0x00, 0x01, 0x00, 0x00, 0x00,
    0x40, 0x00, 0x00, 0x00, 0x03, 0x00, 0x00, 0x00, 0x01, 0x00, 0x00, 0x00,
    0x0c, 0x00, 0x00, 0x00, 0x63, 0x6f, 0x6e, 0x76, 0x32, 0x64, 0x5f, 0x69,
    0x6e, 0x70, 0x75, 0x74, 0x00, 0x00, 0x00, 0x00, 0x04, 0x00, 0x00, 0x00,
    0xff, 0xff, 0xff, 0xff, 0x40, 0x00, 0x00, 0x00, 0x03, 0x00, 0x00, 0x00,
    0x01, 0x00, 0x00, 0x00, 0xfc, 0xff, 0xff, 0xff, 0x04, 0x00, 0x04, 0x00,
    0x04, 0x00, 0x00, 0x00};

unsigned int model_tflite_len = 13120; // Fill the int in `src/model.cc` here